// This file contains the TFLite model as a C array

const unsigned char best_model_h[] = {
  0x20,0x00,0x00,0x00,0x54,0x46,0x4c,0x33,0x00,0x00,0x00,0x00,
  0x14,0x00,0x20,0x00,0x1c,0x00,0x18,0x00,0x14,0x00,0x10,0x00,
  0x0c,0x00,0x00,0x00,0x08,0x00,0x04,0x00,0x14,0x00,0x00,0x00,
  0x1c,0x00,0x00,0x00,0x98,0x00,0x00,0x00,0xf0,0x00,0x00,0x00,
  0x98,0x1e,0x00,0x00,0xa8,0x1e,0x00,0x00,0xb4,0x3d,0x00,0x00,
  0x03,0x00,0x00,0x00,0x01,0x00,0x00,0x00,0x10,0x00,0x00,0x00,
  0x00,0x00,0x0a,0x00,0x10,0x00,0x0c,0x00,0x08,0x00,0x04,0x00,
  0x0a,0x00,0x00,0x00,0x0c,0x00,0x00,0x00,0x1c,0x00,0x00,0x00,
  0x3c,0x00,0x00,0x00,0x0f,0x00,0x00,0x00,0x73,0x65,0x72,0x76,
  0x69,0x6e,0x67,0x5f,0x64,0x65,0x66,0x61,0x75,0x6c,0x74,0x00,
  0x01,0x00,0x00,0x00,0x04,0x00,0x00,0x00,0x90,0xff,0xff,0xff,
  0x23,0x00,0x00,0x00,0x04,0x00,0x00,0x00,0x08,0x00,0x00,0x00,
  0x6f,0x75,0x74,0x70,0x75,0x74,0x5f,0x30,0x00,0x00,0x00,0x00,
  0x01,0x00,0x00,0x00,0x04,0x00,0x00,0x00,0x0a,0xe1,0xff,0xff,
  0x04,0x00,0x00,0x00,0x0d,0x00,0x00,0x00,0x69,0x6e,0x70,0x75,
  0x74,0x5f,0x6c,0x61,0x79,0x65,0x72,0x5f,0x31,0x00,0x00,0x00,
  0x02,0x00,0x00,0x00,0x34,0x00,0x00,0x00,0x04,0x00,0x00,0x00,
  0xdc,0xff,0xff,0xff,0x26,0x00,0x00,0x00,0x04,0x00,0x00,0x00,
  0x13,0x00,0x00,0x00,0x43,0x4f,0x4e,0x56,0x45,0x52,0x53,0x49,
  0x4f,0x4e,0x5f,0x4d,0x45,0x54,0x41,0x44,0x41,0x54,0x41,0x00,
  0x08,0x00,0x0c,0x00,0x08,0x00,0x04,0x00,0x08,0x00,0x00,0x00,
  0x25,0x00,0x00,0x00,0x04,0x00,0x00,0x00,0x13,0x00,0x00,0x00,
  0x6d,0x69,0x6e,0x5f,0x72,0x75,0x6e,0x74,0x69,0x6d,0x65,0x5f,
  0x76,0x65,0x72,0x73,0x69,0x6f,0x6e,0x00,0x27,0x00,0x00,0x00,
  0xa4,0x1d,0x00,0x00,0x9c,0x1d,0x00,0x00,0x84,0x1d,0x00,0x00,
  0x5c,0x1d,0x00,0x00,0xec,0x1c,0x00,0x00,0x9c,0x1c,0x00,0x00,
  0x8c,0x1a,0x00,0x00,0x5c,0x1a,0x00,0x00,0x2c,0x1a,0x00,0x00,
  0x9c,0x19,0x00,0x00,0x8c,0x07,0x00,0x00,0x6c,0x07,0x00,0x00,
  0x4c,0x07,0x00,0x00,0xfc,0x06,0x00,0x00,0x6c,0x02,0x00,0x00,
  0x54,0x02,0x00,0x00,0x3c,0x02,0x00,0x00,0x0c,0x02,0x00,0x00,
  0x24,0x01,0x00,0x00,0x1c,0x01,0x00,0x00,0x14,0x01,0x00,0x00,
  0x0c,0x01,0x00,0x00,0x04,0x01,0x00,0x00,0xfc,0x00,0x00,0x00,
  0xf4,0x00,0x00,0x00,0xec,0x00,0x00,0x00,0xe4,0x00,0x00,0x00,
  0xdc,0x00,0x00,0x00,0xd4,0x00,0x00,0x00,0xcc,0x00,0x00,0x00,
  0xc4,0x00,0x00,0x00,0xbc,0x00,0x00,0x00,0xb4,0x00,0x00,0x00,
  0xac,0x00,0x00,0x00,0xa4,0x00,0x00,0x00,0x9c,0x00,0x00,0x00,
  0x94,0x00,0x00,0x00,0x74,0x00,0x00,0x00,0x04,0x00,0x00,0x00,
  0x22,0xe2,0xff,0xff,0x04,0x00,0x00,0x00,0x60,0x00,0x00,0x00,
  0x0c,0x00,0x00,0x00,0x08,0x00,0x0e,0x00,0x08,0x00,0x04,0x00,
  0x08,0x00,0x00,0x00,0x10,0x00,0x00,0x00,0x28,0x00,0x00,0x00,
  0x00,0x00,0x06,0x00,0x08,0x00,0x04,0x00,0x06,0x00,0x00,0x00,
  0x04,0x00,0x00,0x00,0x01,0x00,0x00,0x00,0xeb,0x03,0x00,0x00,
  0x0c,0x00,0x18,0x00,0x14,0x00,0x10,0x00,0x0c,0x00,0x04,0x00,
  0x0c,0x00,0x00,0x00,0xc9,0x28,0xf6,0xff,0x03,0x26,0xf8,0xec,
  0x02,0x00,0x00,0x00,0x02,0x00,0x00,0x00,0x04,0x00,0x00,0x00,
  0x06,0x00,0x00,0x00,0x32,0x2e,0x32,0x30,0x2e,0x30,0x00,0x00,
  0x8e,0xe2,0xff,0xff,0x04,0x00,0x00,0x00,0x10,0x00,0x00,0x00,
  0x31,0x2e,0x31,0x34,0x2e,0x30,0x00,0x00,0x00,0x00,0x00,0x00,
  0x00,0x00,0x00,0x00,0x30,0xc5,0xff,0xff,0x34,0xc5,0xff,0xff,
  0x38,0xc5,0xff,0xff,0x3c,0xc5,0xff,0xff,0x40,0xc5,0xff,0xff,
  0x44,0xc5,0xff,0xff,0x48,0xc5,0xff,0xff,0x4c,0xc5,0xff,0xff,
  0x50,0xc5,0xff,0xff,0x54,0xc5,0xff,0xff,0x58,0xc5,0xff,0xff,
  0x5c,0xc5,0xff,0xff,0x60,0xc5,0xff,0xff,0x64,0xc5,0xff,0xff,
  0x68,0xc5,0xff,0xff,0x6c,0xc5,0xff,0xff,0x70,0xc5,0xff,0xff,
  0x74,0xc5,0xff,0xff,0xf2,0xe2,0xff,0xff,0x04,0x00,0x00,0x00,
  0xd8,0x00,0x00,0x00,0x59,0x9a,0x34,0x5a,0xc4,0xc3,0xe0,0x01,
  0x3b,0x03,0xf8,0x16,0x43,0xa3,0x1d,0x14,0x81,0x45,0x01,0x09,
  0xc1,0xeb,0x1b,0x54,0x3d,0xc8,0x20,0xdf,0xa0,0x3b,0x49,0xa6,
  0xbf,0x41,0x03,0x81,0xc7,0x08,0x42,0xbd,0xb5,0x26,0x35,0xb7,
  0xd8,0xea,0xe5,0xb8,0xf9,0xf9,0x3b,0x84,0xfa,0x9a,0xc9,0x7f,
  0x0c,0xfa,0x6e,0x4b,0xea,0x41,0x8d,0xd5,0x6a,0xfa,0xa8,0x3e,
  0xee,0xb9,0x64,0x05,0x4e,0xd0,0xa6,0x9c,0xe9,0xbf,0x30,0x4b,
  0x08,0x00,0x63,0xb1,0x42,0x4c,0x41,0xda,0x54,0xc4,0xeb,0x4e,
  0x38,0x5b,0xe6,0xc9,0xe6,0xea,0xb1,0x7d,0x5e,0xf2,0x7f,0x0e,
  0x24,0x24,0x0e,0xcf,0x24,0x20,0x3d,0x0c,0x17,0xbf,0x53,0x37,
  0x18,0x31,0x54,0xd8,0xd0,0xab,0xc2,0xdf,0x19,0x34,0x21,0xae,
  0x32,0xea,0x84,0x81,0xc0,0xdf,0xa7,0x4c,0xd1,0x7f,0xea,0x17,
  0x5d,0x4a,0x8e,0x7a,0xbe,0xe2,0x1d,0x50,0xd4,0x24,0x32,0xb2,
  0x5b,0x25,0x9b,0x28,0x3a,0x26,0x96,0x27,0x8f,0xb7,0x67,0x08,
  0xe6,0x36,0x23,0xa2,0x38,0x44,0x31,0x0f,0x66,0x95,0x78,0x30,
  0x81,0x2d,0xa5,0xb3,0x64,0x9a,0xc2,0xdf,0x12,0x35,0x76,0xfc,
  0xf6,0x32,0x44,0xca,0xfb,0x10,0xa6,0x71,0xd2,0xc3,0x74,0xbb,
  0x81,0x0c,0x3b,0x09,0x24,0x0d,0xeb,0xd0,0xf2,0x95,0xf5,0xfd,
  0x83,0x43,0xae,0x98,0xd6,0xe3,0xff,0xff,0x04,0x00,0x00,0x00,
  0x20,0x00,0x00,0x00,0x72,0xff,0xff,0xff,0xc6,0x00,0x00,0x00,
  0x8b,0xff,0xff,0xff,0x73,0xff,0xff,0xff,0x61,0x01,0x00,0x00,
  0xac,0xff,0xff,0xff,0xc7,0xfe,0xff,0xff,0x9b,0xff,0xff,0xff,
  0x02,0xe4,0xff,0xff,0x04,0x00,0x00,0x00,0x08,0x00,0x00,0x00,
  0x81,0x7f,0x81,0x80,0x81,0x80,0x80,0x83,0x16,0xe4,0xff,0xff,
  0x04,0x00,0x00,0x00,0x08,0x00,0x00,0x00,0x97,0x6e,0x95,0x80,
  0x5f,0x8d,0xd6,0x73,0x2a,0xe4,0xff,0xff,0x04,0x00,0x00,0x00,
  0x80,0x04,0x00,0x00,0xab,0x2b,0x19,0x48,0x7f,0x04,0xdd,0x14,
  0xa0,0x24,0x48,0x30,0x4c,0xd2,0xf6,0x33,0x01,0x2c,0x0a,0x33,
  0x78,0x2a,0xe3,0x24,0xf7,0x27,0xe4,0xdd,0x6e,0xe4,0x02,0xc8,
  0x07,0x3a,0x16,0xd0,0x37,0x2e,0x06,0xeb,0xcc,0xe3,0x0f,0xba,
  0x6d,0x03,0xdc,0x1f,0x0f,0x0a,0xd4,0xe2,0x5f,0x06,0x24,0x81,
  0x20,0xcf,0xce,0xcf,0x45,0xde,0x16,0xf6,0x1e,0x08,0xef,0x0f,
  0x79,0xe4,0x20,0x0b,0x0c,0x4c,0x0e,0x4b,0x11,0x2c,0xe0,0x00,
  0xdb,0x53,0x43,0x46,0x11,0x6b,0xe4,0x20,0x23,0x2f,0xe6,0xf4,
  0x3c,0x47,0xea,0x41,0xeb,0x38,0xd4,0xf2,0x1c,0x24,0x40,0x54,
  0x27,0x54,0x48,0x7f,0xfb,0x65,0xf5,0x0e,0xd2,0x1d,0x17,0x26,
  0x01,0x0e,0xeb,0x05,0xf1,0x34,0xa0,0xca,0x12,0xe2,0xdb,0x36,
  0x38,0x2e,0xd3,0x46,0x08,0xef,0xdd,0x3b,0xe8,0x30,0xe1,0xab,
  0x2b,0x22,0xba,0x48,0x81,0x3c,0xad,0x38,0x4d,0xdf,0xe2,0xfa,
  0xc1,0x5b,0xb7,0x3a,0x1f,0x96,0x1c,0x00,0xdb,0x46,0xdf,0xe9,
  0x58,0xcd,0x3b,0x18,0x8b,0xf3,0xce,0xb2,0x13,0x21,0xa4,0xb9,
  0x05,0xf3,0xdb,0xe7,0xdf,0xfb,0x05,0xf1,0x34,0x52,0xce,0xc1,
  0x1f,0x44,0xb4,0xf7,0x2a,0x0c,0xb5,0xb8,0x16,0x42,0x13,0x96,
  0xe7,0x17,0xc8,0x24,0x09,0xce,0x28,0xba,0xf5,0xdd,0xaf,0x09,
  0x31,0x5f,0xe2,0x1a,0xa4,0xee,0xc9,0xb1,0x1a,0x16,0x2d,0x3b,
  0x50,0x5a,0x21,0x44,0x0a,0xe7,0x51,0x17,0x6d,0x4e,0xc0,0x4c,
  0x19,0x1f,0x5e,0xbe,0x04,0xd5,0xb0,0x1b,0x51,0xfc,0xfc,0xce,
  0x6d,0x55,0x01,0x0a,0x1d,0x30,0x06,0x29,0x77,0xfa,0x0a,0x11,
  0x0b,0x2c,0xeb,0x81,0xf9,0x78,0xbd,0xc5,0x42,0xf6,0x0e,0x18,
  0x45,0xea,0x28,0xf5,0x66,0x10,0xa7,0x26,0x47,0xe3,0x15,0x63,
  0x55,0x22,0xd8,0xdd,0x2d,0xba,0xd5,0x0c,0xf5,0x4b,0xd7,0xdf,
  0x20,0x0a,0xbc,0xc7,0x2e,0x49,0xf4,0xad,0x20,0xc4,0xe7,0xea,
  0x49,0x1d,0xee,0x83,0x23,0xd9,0xcc,0xec,0x45,0x19,0xd4,0x1e,
  0x43,0xf4,0xdb,0xd6,0x2d,0x7e,0xbb,0x99,0x09,0xbc,0xae,0x14,
  0x28,0x46,0xf7,0xb0,0x3c,0x1c,0xf7,0x06,0xac,0x10,0x1b,0x0e,
  0x1f,0x24,0xd3,0x23,0xf8,0x40,0x30,0x32,0x2c,0xab,0xd5,0x31,
  0x81,0x2d,0x0d,0x19,0xe4,0x1d,0xd3,0x14,0x58,0xfe,0xc1,0x04,
  0xb6,0x12,0xbe,0xad,0x14,0xe0,0xd9,0x92,0xa7,0x02,0xff,0xe1,
  0x3c,0xdb,0xf9,0xba,0xc8,0x17,0xf6,0x74,0x43,0xf9,0x2d,0xe2,
  0xd9,0x1a,0xbe,0x46,0xfd,0x23,0x00,0xb5,0x4e,0x17,0xfc,0x0a,
  0x2b,0xf8,0xe9,0xd5,0x0d,0x08,0xd3,0x7f,0xfc,0xd2,0x3d,0x01,
  0x12,0x0e,0xc7,0x61,0x23,0xa3,0x6e,0xd0,0x25,0x19,0x15,0x19,
  0xcc,0xdc,0x4c,0xca,0xc5,0x24,0xf8,0xff,0xb8,0x4b,0x4c,0xdf,
  0xe2,0x06,0xf9,0x00,0xb0,0xf4,0x05,0x4a,0xea,0x0d,0x3b,0x1a,
  0x95,0x1d,0x04,0x37,0x25,0x22,0xdd,0xc2,0xf3,0xd6,0x02,0x44,
  0xb6,0x34,0x32,0xd8,0xd3,0x14,0xde,0x22,0x34,0x15,0x1b,0x26,
  0xd0,0x44,0xc2,0x37,0x28,0x5d,0x01,0x81,0x74,0x5a,0xca,0x3b,
  0xc2,0x38,0x48,0x20,0x55,0x29,0xb9,0x4e,0xde,0x6d,0x55,0xd1,
  0x1e,0x0f,0xba,0x5e,0x3b,0xb4,0xf7,0xc0,0xd0,0x03,0xf7,0xb8,
  0x04,0x27,0x64,0xf9,0xda,0x4a,0x34,0xaf,0xe4,0xbf,0x49,0xc1,
  0x81,0x1c,0xe6,0x04,0xc6,0xac,0xda,0xa2,0x41,0xbd,0xfc,0x3c,
  0xd8,0xea,0xd7,0x8e,0x35,0xeb,0xfd,0x4c,0xda,0xc5,0x1d,0x9f,
  0x0f,0xc5,0x1a,0x39,0x46,0xcb,0xe6,0xf8,0x9a,0x0c,0xfc,0x0c,
  0x3b,0xfe,0x2a,0xd8,0xb7,0x28,0x2f,0x0d,0xe5,0xd3,0xc0,0x2e,
  0x8a,0xab,0xd3,0xea,0x35,0x04,0xfb,0xdd,0xe4,0xd7,0x5b,0xc6,
  0xd0,0xfc,0x16,0xf7,0xf7,0xe0,0x59,0xcd,0xec,0xff,0xf0,0x54,
  0x5d,0xe9,0x38,0x20,0xf2,0x1f,0x20,0xf4,0x15,0xf9,0x03,0xb2,
  0x00,0xf2,0x23,0x43,0x07,0x12,0x51,0x81,0xf6,0xe9,0xe4,0x1b,
  0xd7,0xd6,0x40,0x8f,0xe3,0x08,0xd1,0x46,0x2d,0xd7,0xcc,0x34,
  0xc6,0xf2,0xf0,0x3a,0xd3,0xf1,0x4c,0xda,0x0a,0x00,0x44,0x10,
  0x1b,0xd7,0x35,0x0e,0x36,0x0b,0x59,0x36,0xf0,0xfd,0x5c,0x1f,
  0xee,0x14,0x41,0x7f,0xd6,0xea,0x62,0x28,0xed,0x2e,0x42,0x36,
  0xf5,0x31,0x4f,0x0a,0xc6,0x53,0x5c,0xfb,0x39,0x07,0x18,0x20,
  0xc0,0x4f,0x0a,0x01,0xfd,0x24,0x11,0xe5,0x44,0x2c,0x11,0x37,
  0x34,0x4d,0x06,0x10,0xbc,0x22,0x1d,0xbc,0x26,0x3b,0x05,0x0c,
  0xf9,0x0f,0x39,0xc3,0x22,0x34,0xe5,0xe1,0xa6,0x23,0x34,0x07,
  0x58,0xd9,0x10,0x15,0x48,0x1b,0xe7,0x42,0x0f,0xaa,0x21,0x23,
  0xec,0x15,0xe1,0x06,0x3c,0xec,0xd4,0xf2,0xa4,0x04,0x7f,0x3a,
  0x12,0xb0,0xeb,0x27,0x0e,0xf0,0x95,0xce,0x1a,0x2b,0x42,0xf7,
  0xbb,0x03,0xf2,0xd5,0xbf,0x9e,0xd0,0x38,0xf3,0xf2,0x36,0x2c,
  0xe6,0xbf,0x03,0x1f,0x44,0x0e,0x1c,0x15,0x23,0x5f,0x07,0xcc,
  0x14,0x17,0x10,0xd0,0x0f,0x2e,0xfe,0xdf,0x4d,0x15,0xdf,0xe6,
  0x05,0x1b,0x3a,0x05,0x06,0xee,0xed,0xe1,0x1c,0x43,0x29,0x81,
  0xeb,0xf3,0x01,0xdb,0xbf,0x61,0x05,0xe4,0x1b,0x85,0xf8,0xfb,
  0x12,0x40,0xeb,0xb0,0xfe,0xdb,0x1b,0xf2,0xfa,0xdf,0xf5,0xc6,
  0x37,0x35,0xd7,0x2b,0xc1,0x36,0xe1,0xbe,0x2a,0x01,0xef,0xe8,
  0xc0,0x0d,0xf6,0xc8,0xf9,0xe1,0x36,0x26,0xed,0x0a,0x1c,0xcd,
  0xe9,0x07,0x01,0xd5,0xc3,0x0e,0x3f,0xb4,0xdc,0xda,0x33,0x27,
  0xae,0x15,0x16,0x0b,0x39,0xf5,0x02,0x1b,0x37,0x7a,0xee,0x17,
  0x17,0xe2,0x3b,0x01,0xf6,0x1d,0xe4,0xa6,0x3a,0x28,0x3b,0xf9,
  0xb6,0x7f,0xea,0xc6,0xf8,0x10,0x22,0xd1,0xf9,0x5b,0x22,0x0e,
  0xfd,0x21,0x32,0x12,0x14,0x71,0x26,0x13,0xce,0xfb,0x1e,0x4b,
  0x34,0x65,0x0c,0xbb,0xfd,0x02,0xf7,0xfc,0xf8,0x2e,0x13,0xfb,
  0xe4,0x0a,0xf9,0xdf,0xc3,0x49,0xe5,0x1c,0xe6,0x07,0x29,0xd9,
  0xf3,0x3f,0xe9,0x35,0x31,0xfb,0xd9,0xd1,0x05,0x02,0x2a,0xab,
  0x42,0xcd,0xff,0x1e,0xfb,0x0f,0x39,0xfc,0x3d,0xc5,0x1e,0x50,
  0xb9,0x19,0x7f,0xa7,0xfa,0xb4,0xed,0xfd,0x23,0x3e,0xf8,0x05,
  0x10,0xb5,0xcf,0x48,0xde,0xed,0x53,0x0a,0x0e,0x1f,0xe4,0x06,
  0xfb,0x2e,0x3c,0xe9,0xec,0xed,0xaa,0xf1,0xcf,0xd9,0x04,0xa9,
  0x02,0xc3,0xae,0xf5,0x44,0x2e,0x26,0xbc,0xd0,0xe2,0xfd,0xf7,
  0xee,0x07,0xeb,0x19,0xce,0x30,0xf3,0x53,0x44,0x2c,0x6a,0x99,
  0x00,0x3e,0x1e,0x17,0x41,0x6a,0x7f,0xcc,0xd8,0x4d,0x49,0x4c,
  0x6b,0x3f,0x0a,0xc1,0xe7,0x25,0x2b,0xce,0x0c,0xbc,0xef,0xaf,
  0x28,0x0d,0xef,0xd6,0xc9,0xfb,0xe1,0xe6,0xdd,0x4a,0xe2,0x1a,
  0xfc,0xd6,0xa0,0x13,0x53,0x13,0xf6,0xd9,0x0d,0x36,0xb8,0x22,
  0x1a,0xdb,0xe7,0x06,0xbb,0x2e,0xa5,0x24,0xee,0x36,0xd7,0x3d,
  0x4a,0x3f,0x27,0x30,0x06,0x0a,0xfe,0xd1,0x2b,0xe7,0x2e,0x81,
  0x4c,0x08,0xbf,0x1c,0x42,0xf9,0x2a,0xdb,0x5d,0x15,0xdc,0x09,
  0x33,0x22,0xd3,0xe2,0x41,0x22,0xb5,0xe7,0xf6,0x26,0x1f,0xe5,
  0x30,0x28,0x97,0x23,0x0d,0x43,0x47,0x93,0xee,0x2a,0xd0,0xe2,
  0x14,0x4d,0xea,0xaa,0x52,0xf6,0xbb,0xa3,0xff,0x28,0xf9,0xfe,
  0x0d,0x10,0x99,0x9e,0x23,0x1f,0xb6,0x50,0x4a,0x1f,0xe0,0x46,
  0xff,0x3f,0xfc,0x4f,0xb6,0xe8,0xff,0xff,0x04,0x00,0x00,0x00,
  0x40,0x00,0x00,0x00,0xc0,0xff,0xff,0xff,0xb6,0xff,0xff,0xff,
  0xe9,0xff,0xff,0xff,0xe9,0xff,0xff,0xff,0x1b,0x00,0x00,0x00,
  0xcf,0xff,0xff,0xff,0xbe,0xff,0xff,0xff,0xf3,0xff,0xff,0xff,
  0xe9,0xff,0xff,0xff,0xc3,0xff,0xff,0xff,0x71,0xff,0xff,0xff,
  0x2d,0x00,0x00,0x00,0xd6,0xff,0xff,0xff,0x19,0x00,0x00,0x00,
  0xac,0xff,0xff,0xff,0x6b,0xff,0xff,0xff,0x02,0xe9,0xff,0xff,
  0x04,0x00,0x00,0x00,0x10,0x00,0x00,0x00,0xf5,0x00,0xdf,0xe0,
  0x07,0x5d,0xc0,0xd2,0x07,0xd3,0x7f,0xf0,0xbe,0xfd,0x32,0x6b,
  0x1e,0xe9,0xff,0xff,0x04,0x00,0x00,0x00,0x10,0x00,0x00,0x00,
  0x3d,0x6b,0x30,0x7e,0xf3,0x4d,0x27,0xb5,0xdb,0xd6,0x7f,0xb3,
  0x92,0x80,0x6d,0x56,0x3a,0xe9,0xff,0xff,0x04,0x00,0x00,0x00,
  0x00,0x12,0x00,0x00,0x0c,0x0c,0x22,0x15,0xce,0x1f,0xef,0xfb,
  0xf4,0x02,0x07,0xf6,0xdd,0x13,0xeb,0x9d,0xd3,0x04,0xfc,0x22,
  0x1d,0x4a,0x00,0xd4,0x10,0x15,0x81,0xcd,0xf6,0x1f,0xc1,0xe9,
  0x37,0xeb,0x31,0xf5,0x10,0x05,0x1f,0xef,0x10,0x1a,0x9e,0xf4,
  0x14,0xee,0xfb,0xde,0x1b,0x4f,0xf8,0xed,0xe4,0xe5,0x3d,0xe7,
  0xa0,0x13,0x01,0xc2,0xd7,0x21,0xf2,0xe3,0x16,0xf3,0xd5,0xf8,
  0x21,0xa2,0xf2,0xf1,0xec,0x16,0xd1,0xb5,0x0d,0x28,0xaa,0x17,
  0x21,0xf3,0x0c,0x02,0x26,0xbc,0x25,0xaf,0xc3,0xf8,0xdb,0xc6,
  0x41,0x04,0xe7,0x08,0x09,0x0b,0x06,0xe9,0xdd,0x1b,0x06,0xad,
  0x14,0xe7,0xf4,0xbf,0xec,0xd6,0xf7,0x36,0x0d,0xba,0xe0,0x19,
  0xfa,0x2f,0xdb,0xcd,0x46,0xfa,0xee,0xe5,0x2b,0x56,0xf0,0x0a,
  0x1e,0x0f,0x2a,0xd8,0x07,0xd1,0xee,0xcb,0x36,0x1c,0xc1,0x0b,
  0x25,0x0c,0xdf,0x10,0xac,0x16,0x11,0xa2,0xea,0xd1,0x23,0xdb,
  0xbe,0xb6,0xe5,0x23,0x05,0xa3,0xd8,0x9d,0x83,0xe1,0xc5,0xdf,
  0x18,0xe1,0xec,0xdd,0xfb,0xcc,0xe3,0xff,0x1b,0xbb,0xe9,0x03,
  0xb4,0xdf,0x0f,0xed,0xdc,0xc7,0x3d,0xd8,0xf6,0xc8,0xc6,0xe9,
  0xd2,0xed,0xab,0x3a,0xe0,0xc6,0x08,0xf6,0x0c,0xb3,0x39,0x3e,
  0xfb,0x2d,0xea,0x0c,0xf7,0xcf,0x44,0x91,0xed,0x13,0xe5,0x41,
  0xea,0xa8,0x38,0x30,0x4a,0x24,0xe4,0xff,0x16,0x14,0xf9,0x81,
  0x91,0xea,0x19,0x23,0xeb,0x08,0x2f,0xf5,0x42,0x16,0x1e,0xca,
  0xde,0x11,0x22,0xe2,0xbf,0x16,0x20,0xed,0x2d,0x0b,0xd9,0x2b,
  0x27,0xb8,0x42,0xdf,0x23,0x18,0x2c,0xd6,0xa6,0x12,0x2e,0x16,
  0x16,0x27,0xd0,0x28,0x06,0x11,0xdf,0x1f,0x41,0x4a,0x2d,0x08,
  0xe1,0x35,0x41,0xd5,0x55,0xf1,0xb2,0xd3,0x3e,0x0e,0xa9,0xdf,
  0xf4,0x60,0x0a,0x46,0xc6,0xd0,0xfb,0x81,0xe4,0x24,0xa7,0xfb,
  0xb6,0xbd,0x0a,0xff,0xdc,0xad,0x81,0xb3,0x12,0xfb,0x20,0xd2,
  0xb1,0x39,0xfd,0xd8,0xaf,0xc2,0x19,0xdd,0xfc,0xa7,0x00,0xb6,
  0xfa,0xd2,0xd0,0xf7,0xfd,0x1f,0xb3,0x04,0xd0,0xe8,0x09,0xdb,
  0x9e,0xb3,0xea,0xf8,0xb3,0x2f,0xa9,0xca,0xe9,0x1f,0xb3,0xc6,
  0xc2,0x10,0x22,0xef,0x17,0xe5,0xca,0xff,0xda,0x14,0xc0,0x04,
  0xf2,0xe6,0xf4,0xd5,0xb7,0xf6,0xd8,0x2d,0xda,0xf5,0x18,0x18,
  0xbe,0x55,0x34,0x0b,0x3a,0xe5,0x0d,0xd1,0xf0,0x18,0x1e,0x05,
  0x10,0x36,0xfb,0xe9,0xbd,0xd8,0xbb,0x0a,0x24,0xfb,0xf7,0x0d,
  0x49,0x37,0xd5,0x39,0x02,0x13,0x1f,0xf5,0xb2,0x1c,0x94,0xee,
  0x54,0x38,0xcf,0x2c,0x2f,0x45,0xec,0x29,0x05,0xea,0x34,0xc6,
  0x04,0x55,0xd7,0x27,0x18,0x52,0xc8,0xe2,0x52,0x20,0xed,0x67,
  0x40,0x1e,0x31,0x8e,0xff,0x10,0x0d,0xe3,0xc3,0xf1,0x0a,0x00,
  0xee,0xf3,0x10,0x07,0x45,0x59,0xa2,0xbe,0x4e,0xe7,0x22,0xd4,
  0xe1,0x9d,0x0d,0xd7,0x0f,0xcf,0xb7,0x09,0x2c,0x1e,0x81,0xbc,
  0x05,0xc2,0x07,0xee,0x1b,0xd0,0x0e,0x26,0x42,0xc2,0xa6,0x03,
  0x35,0x3a,0xcb,0xf9,0xf5,0x1e,0xcb,0xb6,0x0c,0x11,0xe1,0x30,
  0xd3,0x86,0x3f,0x0a,0x4c,0x3e,0xce,0x01,0xe3,0xf2,0xf9,0xc5,
  0xeb,0xf3,0x0b,0xeb,0x05,0xbc,0x4b,0x5a,0x0f,0x44,0xc1,0xd7,
  0xd8,0xe1,0x26,0xa3,0xfb,0x1b,0xd3,0x1b,0xcd,0x92,0x75,0x5b,
  0x21,0x0c,0xb7,0x12,0xe5,0x65,0xa0,0xe5,0x0a,0xfb,0xe8,0xee,
  0xde,0xcd,0x1a,0xed,0xc8,0x4b,0xd2,0xea,0xd0,0x03,0xb2,0xf1,
  0xee,0xda,0x19,0xfe,0x03,0xfd,0xf4,0x05,0xea,0x31,0x32,0x13,
  0x19,0xe3,0xd6,0x15,0xe6,0xc2,0x06,0xe6,0xff,0xb0,0x1e,0xb2,
  0xff,0x5f,0x28,0x04,0x33,0xd8,0x01,0xd8,0x28,0x58,0x21,0xf6,
  0xfd,0x08,0x1d,0xd5,0x1c,0x0e,0xee,0xfb,0x4c,0xe0,0xdd,0xcc,
  0x09,0x47,0xbb,0x36,0xec,0xff,0xe4,0xef,0xed,0x0a,0xdf,0xea,
  0x3e,0xfc,0x2e,0xec,0x09,0xf6,0x2a,0x2b,0xf6,0x40,0xc3,0x23,
  0x1a,0x44,0x00,0xfd,0xc7,0xed,0xc0,0xf1,0xcc,0xcb,0xd0,0xd5,
  0x16,0xf1,0xfb,0xd1,0x06,0x18,0x16,0xc6,0xb4,0xbe,0xf2,0xb6,
  0x1e,0xba,0x0b,0xc4,0x30,0x1c,0xd2,0x97,0x26,0xfe,0x16,0x28,
  0x0c,0xfe,0xcb,0xef,0xdb,0x1d,0xf6,0x10,0x1d,0xe2,0xda,0xd6,
  0x37,0x39,0xdb,0xd9,0x3c,0x04,0x04,0x22,0xbe,0xf7,0xfc,0xf1,
  0xc4,0xf7,0xa4,0xfc,0xee,0x1c,0xfe,0xaf,0x2e,0xb7,0x0c,0x35,
  0xb4,0xaa,0xcc,0xda,0x21,0x0b,0x81,0xbd,0xef,0x21,0x11,0x3c,
  0x3b,0x07,0xc8,0x20,0xce,0x15,0xf1,0x32,0xc2,0x02,0x39,0xee,
  0xfd,0x21,0xf9,0xf6,0xc2,0xbc,0x1f,0xe5,0xfb,0xb6,0x42,0x75,
  0xf0,0x62,0xf7,0x1c,0x64,0x20,0x0a,0x1b,0xee,0xa0,0x30,0xe7,
  0x2a,0x9c,0x15,0x2a,0x47,0x5b,0xd3,0x08,0x63,0x59,0x47,0xf2,
  0xe3,0x10,0x4a,0xcf,0x0f,0x83,0x7b,0x71,0x1c,0x02,0xed,0xc4,
  0x53,0x35,0x14,0x9b,0xef,0xa7,0xdf,0x10,0x30,0x3a,0x2c,0x7f,
  0xf0,0x15,0xcd,0xf9,0x2e,0x53,0xa5,0x01,0xe5,0x2f,0x50,0x4a,
  0x11,0x40,0x22,0x18,0xd5,0xf6,0xde,0x22,0x64,0x16,0xcd,0x96,
  0x12,0xd3,0xea,0xd0,0xeb,0xcd,0x41,0xdf,0xaa,0x2b,0x34,0xbf,
  0x69,0xe4,0xee,0x99,0x86,0xc8,0x05,0xef,0x14,0x04,0x4d,0x3c,
  0x12,0xb4,0xfd,0xa4,0x11,0x1a,0xf4,0x57,0xef,0x3e,0xe8,0x2d,
  0x03,0xdb,0xe7,0x1b,0xdf,0x43,0xbf,0xf2,0x74,0x63,0xe2,0x4a,
  0x96,0xf5,0xec,0xcf,0x46,0x9e,0xe4,0x0a,0xbf,0xaf,0x90,0x0e,
  0x31,0x4b,0xfc,0x0b,0xd7,0x18,0x00,0xed,0xe1,0x01,0x41,0xd2,
  0xd9,0x93,0x26,0xf9,0x46,0xf4,0xde,0xf4,0xd3,0x24,0xe3,0x04,
  0xb4,0xf1,0x13,0x04,0xd7,0x91,0x24,0xfa,0x56,0xde,0x92,0xbc,
  0xd1,0x13,0xa7,0x17,0x14,0x13,0x33,0xf6,0xe9,0x88,0x52,0xde,
  0x1a,0x0f,0x81,0xff,0xb2,0xed,0x46,0xe8,0x02,0xd3,0x25,0xf2,
  0xdd,0xfe,0xe1,0xed,0xfd,0xec,0xef,0xc5,0xc1,0x0b,0x1b,0xfc,
  0x16,0xe6,0x04,0xf9,0x20,0xfc,0xda,0x1c,0x69,0x58,0xf2,0xfe,
  0xd7,0xc3,0xe8,0x2b,0x01,0xee,0x33,0xf3,0x0d,0xca,0x19,0xe0,
  0x04,0xe1,0xed,0xdc,0xa9,0xc4,0x28,0xb4,0xf0,0xa9,0x1f,0x24,
  0x49,0xc8,0x52,0xf7,0x28,0x38,0xf9,0x9d,0xde,0xf9,0x04,0xc6,
  0x03,0xe9,0x0b,0x3e,0x3b,0xd5,0x47,0xf8,0xea,0x17,0xe0,0xfc,
  0x9f,0xbb,0xf7,0xe9,0xd3,0xc5,0xff,0x05,0x40,0xc9,0x68,0x04,
  0xe8,0x09,0xc1,0xdc,0x33,0x13,0xed,0x06,0x07,0x0e,0xba,0xc0,
  0x39,0x07,0xa4,0x24,0x22,0x16,0xdd,0xff,0x39,0xa7,0x29,0x9b,
  0x19,0x1d,0xd5,0xc4,0x0e,0x11,0xe0,0x35,0xbe,0xfc,0x12,0xc8,
  0xfc,0x9d,0xdf,0xa9,0x33,0x27,0xec,0xd2,0xcb,0xce,0xcf,0xf1,
  0x0d,0x4c,0x20,0xa3,0x23,0xc6,0x1f,0x10,0x25,0x2f,0x10,0xdb,
  0xc1,0xe7,0x49,0xda,0x27,0x66,0xcb,0xab,0x53,0x3f,0xc7,0xde,
  0x15,0xeb,0xdd,0xd9,0xd8,0x0a,0xd2,0xc2,0x2a,0x64,0xc6,0x81,
  0x39,0x35,0xe8,0xe7,0xdd,0xe4,0xd8,0x81,0x29,0x09,0x3c,0xea,
  0xee,0x56,0x23,0x08,0xe8,0xc7,0xf5,0xc3,0xe9,0x27,0x3d,0xd4,
  0xf4,0x08,0x3a,0xcc,0xf0,0x2f,0xbe,0xbd,0x05,0x4d,0xf8,0xdb,
  0xa5,0x12,0xe6,0xe2,0x06,0xed,0xcd,0xb2,0x10,0xf8,0xc0,0xa7,
  0x10,0x34,0x10,0x87,0x8d,0xef,0xd2,0x0c,0xe1,0xf0,0xe4,0xa2,
  0x00,0x22,0x42,0x91,0xfc,0x14,0xe5,0x0f,0x32,0x24,0x01,0xd7,
  0xe9,0x25,0xc2,0x3b,0x1d,0x24,0x14,0xcf,0xf6,0xdc,0xd8,0x9e,
  0xfb,0x5c,0xb1,0xf0,0x3f,0x15,0x24,0xfe,0xe7,0x2d,0xd3,0x99,
  0x0a,0xc6,0x05,0x1b,0xf7,0x44,0xc1,0xba,0x1f,0x22,0xd5,0x30,
  0x0e,0x43,0xd3,0xea,0x05,0x08,0xfa,0xd6,0x26,0xd0,0x53,0x0b,
  0xc6,0x1e,0x0b,0x15,0xdb,0xd5,0xdd,0x00,0xcd,0x08,0xf7,0xf8,
  0xf6,0x11,0xec,0xc3,0x1a,0x29,0x12,0xd5,0xfe,0x0b,0x0c,0x15,
  0x16,0xe0,0x28,0x2b,0xd2,0xf2,0x3f,0xb9,0xf3,0xdd,0x03,0x06,
  0xd6,0x3d,0xe4,0x14,0x03,0x06,0xe9,0x11,0x09,0x07,0xfd,0xe0,
  0x92,0xd1,0x24,0xe3,0xfc,0xdf,0xf4,0x1b,0x39,0x11,0x1a,0x02,
  0xfe,0x0f,0xee,0xef,0xe5,0x07,0x41,0x19,0xb5,0xc5,0xc4,0x31,
  0x71,0xbd,0x17,0x0b,0x06,0x21,0x2a,0xb6,0x81,0xf9,0xef,0x02,
  0xf5,0xdd,0xd3,0xdf,0x0d,0x0f,0x1b,0x2a,0xfb,0xf8,0x01,0x1e,
  0x21,0xa1,0xec,0xe1,0xdd,0x1a,0x14,0xcd,0x27,0x1f,0xa7,0x24,
  0xe8,0x0c,0x0d,0xfb,0x57,0xd4,0x9a,0xb3,0x27,0x07,0xcd,0xe8,
  0x50,0x24,0xda,0x3d,0x23,0xe6,0x05,0x12,0x17,0xca,0xfe,0xc8,
  0xe1,0x37,0xe1,0xb6,0x57,0x34,0xa0,0x48,0xda,0xcc,0x39,0xe4,
  0xf2,0xfe,0xf3,0x27,0xf6,0xc1,0xf7,0xec,0x2b,0x2f,0x81,0x39,
  0xe5,0xb7,0x2c,0xdc,0x16,0xa3,0xcb,0x19,0x2c,0xdb,0xe2,0xa3,
  0x44,0xed,0xbc,0x13,0xda,0xca,0x16,0xd8,0x2c,0xf4,0x1d,0xcb,
  0x23,0xdd,0xfe,0xc6,0x60,0x2f,0xd8,0x61,0x25,0x30,0x15,0x1d,
  0x1c,0xf0,0xe3,0x20,0xee,0xed,0x36,0xa3,0xd8,0x49,0xec,0x20,
  0x18,0x38,0xf1,0xff,0x1a,0xf5,0xd3,0xff,0x04,0x19,0xfc,0xc5,
  0xe1,0xf0,0x01,0x28,0x22,0xfb,0x01,0xd2,0xff,0xdd,0xd5,0xd6,
  0xdc,0xf8,0x48,0xe4,0xed,0xb9,0x09,0x35,0x0e,0x1b,0x10,0x00,
  0x02,0x00,0xf7,0xed,0xfc,0x5e,0xeb,0xcb,0x1e,0xe2,0x19,0x07,
  0xdd,0x0b,0xd2,0xf2,0xca,0x1a,0xfa,0x16,0xd3,0xf3,0x4c,0xa7,
  0xe4,0xbf,0xd6,0x28,0x20,0x35,0x0c,0x02,0x39,0x05,0xeb,0xaf,
  0xec,0x48,0x19,0xbe,0xde,0xce,0x1e,0x21,0xe3,0xda,0x05,0x10,
  0xfe,0xe3,0x2d,0xd6,0xf4,0x5d,0x20,0xc5,0x35,0xbf,0x1e,0xe5,
  0x18,0xd7,0x26,0x23,0xf7,0xc4,0x05,0x06,0x24,0x26,0xc3,0xc5,
  0x55,0x81,0x12,0xe9,0xfe,0xf4,0xf8,0xf8,0xd4,0xf1,0x08,0xe0,
  0x25,0x34,0xd2,0x82,0x20,0x0b,0xa2,0x13,0x0a,0xd8,0xc9,0x2c,
  0x0d,0xc4,0x0a,0xc8,0xd0,0x30,0x11,0xcc,0xe5,0xfd,0xcd,0x14,
  0xf3,0xda,0xe6,0x14,0xfd,0xe9,0xd1,0xeb,0xff,0x1e,0x0d,0xb7,
  0xf0,0x0d,0xb2,0x24,0x08,0xcb,0xed,0x14,0x09,0xa6,0x2b,0xaf,
  0xda,0xd0,0xd3,0xc3,0x98,0xe7,0xfa,0xf6,0xda,0xc6,0x1a,0xce,
  0xbb,0xd2,0x16,0xd2,0x4b,0xf3,0x9c,0x51,0xec,0xed,0xe5,0x0b,
  0xe5,0xe0,0xec,0xdc,0xd5,0xfe,0xd3,0x04,0x65,0x1a,0x97,0xd4,
  0xe2,0xec,0xc7,0xf3,0xc8,0xa5,0x41,0xef,0x81,0xc2,0x29,0xd6,
  0x23,0xc6,0xce,0xe2,0xc2,0xe3,0x11,0x08,0xd3,0x20,0x20,0xe3,
  0x34,0xf6,0x15,0xe4,0x22,0x29,0xee,0x58,0xb5,0xfc,0x0c,0x23,
  0x01,0xfc,0x01,0x32,0xfd,0x04,0xd3,0xe7,0x55,0x44,0xd4,0xf9,
  0xbc,0xf5,0xd0,0x19,0xd9,0xfa,0x1f,0x0f,0xe9,0xdb,0x34,0x01,
  0x4d,0x17,0x05,0x1d,0x93,0xcc,0x14,0x19,0xdc,0xe8,0xe1,0xfa,
  0x5f,0xee,0xd8,0x94,0x0c,0x2d,0xb8,0x25,0xc7,0x11,0x2c,0xe6,
  0x12,0x2d,0xf0,0x3b,0x5c,0xd8,0x22,0xcc,0x29,0xf9,0x19,0x0e,
  0xad,0x4f,0x02,0xea,0xe7,0xd8,0x06,0x0e,0xff,0xea,0x13,0xe9,
  0x12,0xa7,0xc4,0xbe,0x19,0x12,0xf0,0x13,0x18,0xde,0x08,0xdd,
  0xdf,0x2c,0x0d,0xe8,0xde,0xfe,0x27,0x0d,0x02,0x34,0xf1,0xf3,
  0xe9,0x1a,0xed,0x0d,0xf3,0x11,0x1e,0xd6,0x26,0x0b,0xf4,0x1f,
  0xf2,0xe5,0x4a,0xe5,0xe2,0x38,0x00,0x09,0xf6,0x4c,0x18,0x05,
  0x06,0x11,0xe6,0x0a,0xf7,0xe0,0xc2,0x29,0x3e,0xcc,0xea,0x0e,
  0xcc,0x19,0xbd,0x11,0xdf,0xef,0x19,0x23,0xd8,0xe2,0xeb,0x16,
  0x28,0x0d,0x08,0xdf,0xce,0x00,0xea,0x16,0xe7,0x18,0x12,0x2f,
  0x2a,0xf5,0x15,0xde,0x1b,0x2b,0xe1,0xe9,0xf3,0x2c,0x14,0xfd,
  0xdb,0x22,0xdb,0xf8,0x1f,0xf6,0x81,0x9f,0x04,0xbf,0x11,0xf4,
  0xd8,0x08,0xf3,0x28,0xe0,0xf9,0xed,0xeb,0xcf,0x0c,0xc1,0x9e,
  0xc5,0xea,0xcf,0xe1,0xe3,0x31,0xf8,0x2c,0x29,0xe4,0xd9,0xbd,
  0x05,0xd8,0x1f,0x9c,0xe4,0x26,0xe1,0x0f,0xde,0x53,0xe7,0xf6,
  0x24,0xd9,0x92,0xe8,0xb9,0x16,0xd6,0x1d,0xda,0x12,0xd3,0xdc,
  0x00,0xca,0xf3,0x18,0x03,0x19,0x98,0x1c,0xe4,0x1e,0xc4,0xcb,
  0xc1,0xe6,0x01,0xea,0xeb,0xb6,0xc8,0xf2,0x3e,0x12,0xaa,0x54,
  0xa0,0x03,0xf0,0xc4,0xd9,0xad,0x0d,0x2b,0xc7,0xb0,0xcb,0xf7,
  0x5f,0xd1,0xb6,0x0f,0x0a,0xe4,0xca,0x1b,0xd0,0xcc,0x0a,0x2e,
  0xf6,0xec,0x05,0x26,0x05,0x05,0xbc,0x12,0xf9,0x01,0xf0,0xeb,
  0xc4,0xed,0xf6,0x0f,0x3e,0x37,0x11,0xdd,0x4a,0x00,0x2a,0xa8,
  0xde,0x1a,0x1d,0xf6,0xcf,0xaa,0x2d,0x0d,0x1c,0xee,0xda,0xd2,
  0x5a,0xb8,0x03,0xf5,0xb6,0xf5,0x00,0xb0,0x22,0x0e,0x13,0x21,
  0x11,0xd5,0x03,0xd0,0x10,0x0a,0xee,0x52,0xa9,0x39,0xec,0xd9,
  0x1e,0x30,0xd9,0xf3,0x5e,0xb2,0xee,0x1b,0x10,0xf6,0x12,0xbe,
  0x81,0x04,0x35,0x03,0xe3,0xd9,0x1e,0x52,0x00,0x1a,0x1a,0xe7,
  0x20,0xe5,0xdc,0x3b,0x00,0x05,0xc0,0xe0,0x33,0x23,0xec,0xcb,
  0x28,0x0f,0x81,0xf8,0xfe,0x05,0xe6,0x1e,0xee,0xf9,0xe2,0x2d,
  0x0b,0x08,0x10,0xc8,0x0b,0x14,0xe1,0x0e,0x2d,0x3b,0xf0,0xf5,
  0x0b,0x00,0xc2,0xe2,0xd7,0x12,0x1d,0xf9,0xd8,0x01,0xe8,0x30,
  0xf1,0xe0,0xc0,0x0a,0x0b,0xe1,0x37,0xbc,0xe4,0x02,0x03,0x3a,
  0x20,0x28,0x9f,0x35,0x05,0xfc,0xeb,0x11,0x18,0x29,0x1c,0xd9,
  0xcc,0x4d,0x36,0x38,0xf0,0xf9,0xc7,0xdd,0x04,0x5f,0xd2,0x21,
  0x2c,0x16,0xfd,0xbe,0xa6,0x38,0x3f,0x27,0xae,0xdf,0xf8,0x11,
  0xdb,0xee,0xf3,0x02,0xea,0x20,0x28,0x0c,0x22,0xc9,0xe6,0xcf,
  0xea,0x15,0xfa,0xfa,0x41,0x36,0x06,0xbc,0xf8,0xf9,0x26,0x00,
  0x3a,0x11,0xe0,0xc1,0xc1,0x02,0xdd,0xfc,0x39,0x31,0x19,0xd2,
  0x0f,0xf0,0x21,0xfb,0x06,0x19,0x0e,0xc4,0x9f,0x25,0x04,0x1a,
  0x1e,0xf5,0x11,0x03,0x27,0x33,0xf5,0xf9,0xfc,0x3c,0x0c,0xe6,
  0x4d,0x3f,0xe5,0xbd,0xd3,0x2e,0x05,0x09,0x48,0xc8,0xdb,0xd3,
  0xf3,0x15,0x36,0xd8,0x05,0xd0,0xc2,0xb3,0xf9,0x49,0xd9,0xf6,
  0x5e,0xd4,0xe5,0xc6,0xfa,0x18,0x01,0x2a,0xe3,0x0f,0xf9,0xf8,
  0xe1,0x1a,0xe5,0x0d,0x2c,0xf8,0x48,0xfa,0x12,0xd9,0xd2,0x03,
  0xff,0x25,0xd6,0xd7,0x21,0x3d,0xed,0xab,0xc6,0x01,0x15,0xe5,
  0x01,0x0e,0xe2,0x02,0x0d,0x33,0xdc,0x13,0x44,0x34,0xc4,0xa4,
  0x06,0x1e,0xed,0xec,0xd8,0x0c,0xcb,0x02,0xfd,0xf5,0xa3,0x19,
  0x04,0x09,0xd3,0xe8,0xed,0x2a,0xeb,0xfe,0x81,0x29,0xdf,0x27,
  0x0d,0x02,0xe1,0xaf,0x10,0x12,0xfc,0x4a,0x0f,0x17,0xf0,0x08,
  0xdc,0xe5,0xf5,0x15,0xc9,0x14,0xd3,0x1c,0x3b,0x4e,0x26,0xea,
  0x4b,0xed,0xca,0xd8,0xd4,0xc7,0xa4,0x07,0xcc,0xee,0xe9,0x19,
  0xea,0xec,0x29,0xb6,0xdc,0xd1,0x03,0x44,0x18,0x18,0xe2,0x09,
  0x50,0xe9,0xfe,0xcd,0xde,0x18,0x1b,0xfd,0xb2,0xcf,0x3c,0xe5,
  0xaf,0x37,0xc6,0xd2,0x0e,0x13,0x20,0x8e,0xbb,0x08,0xdf,0xdb,
  0xbf,0xaa,0x1a,0x35,0xb0,0x1a,0xfa,0xbc,0x7f,0x18,0x02,0xd2,
  0xf7,0x14,0x1c,0x34,0xe8,0x14,0xc0,0x1f,0xe1,0xca,0x41,0xd2,
  0x17,0x03,0x8a,0x1e,0xf2,0xc3,0x0d,0x0f,0xda,0x9a,0xef,0x20,
  0xed,0x56,0xed,0x0a,0xe1,0xef,0xfb,0xdb,0xee,0x07,0xc2,0xc3,
  0xdd,0xa6,0xde,0x57,0xe9,0x19,0xe4,0x1d,0x0d,0xff,0xe4,0x1c,
  0x02,0xe1,0x20,0x2c,0xe5,0xd7,0xdb,0x11,0x11,0xb7,0x1b,0xa9,
  0xc2,0xfe,0xa1,0x23,0x30,0xc4,0x04,0x0d,0xfb,0xf8,0xf5,0xf4,
  0x3c,0x27,0xd1,0xb7,0xb8,0xec,0xdc,0xe6,0x2f,0xb5,0xc0,0x20,
  0x15,0x3c,0xd5,0x45,0x30,0x0b,0xd3,0xa1,0xec,0xe4,0xed,0x13,
  0x54,0x04,0x2d,0x1e,0xad,0x0c,0x35,0x1a,0x33,0x48,0xf6,0x55,
  0xf9,0x7f,0xca,0x14,0x32,0xfd,0x26,0xf2,0xd0,0x1d,0xfd,0x10,
  0x04,0x27,0x30,0x47,0x20,0x54,0xa2,0x19,0x2b,0x1f,0x05,0xe0,
  0xed,0x15,0xff,0xdc,0x4e,0x40,0xf6,0x60,0xe6,0x23,0xaf,0x09,
  0x2f,0xdf,0xf1,0x1c,0xd8,0xd8,0xba,0x96,0xef,0xc1,0x16,0x28,
  0xe1,0x05,0xfa,0xef,0xeb,0xbc,0xd8,0xe6,0xbc,0xe1,0xe5,0xb8,
  0x1a,0x06,0xe8,0x4e,0xdc,0x09,0x0f,0x24,0xe5,0xce,0xe9,0x16,
  0xb3,0xf9,0x14,0xb8,0xe0,0xb8,0x1b,0x31,0x1c,0xc0,0x01,0xf0,
  0x10,0xbf,0x87,0xff,0xf2,0x08,0xf4,0x0a,0x0c,0xad,0xda,0x0a,
  0x19,0xf0,0xbc,0xf7,0x2c,0x21,0x3a,0xc5,0xb5,0x02,0x06,0xcb,
  0x17,0xa4,0xcf,0x06,0x1c,0x19,0x9b,0xe9,0x32,0xe0,0x22,0xdc,
  0xbb,0x24,0xb6,0x9c,0x0a,0xd3,0x93,0x1d,0xcf,0x04,0xd7,0xf3,
  0xd4,0x13,0xde,0xfc,0xee,0xfc,0x02,0x0f,0xfa,0x1b,0x2a,0x1b,
  0xd7,0x94,0xd7,0x07,0x41,0xc3,0x85,0x10,0xde,0x0f,0x23,0xef,
  0xff,0x07,0x47,0x0f,0x0f,0x9d,0xf7,0x06,0x1f,0x9a,0xc3,0x18,
  0xc2,0x13,0x08,0xcf,0x0b,0x04,0xf6,0xd7,0xf7,0x95,0x03,0x04,
  0x0b,0xb0,0x81,0x0b,0xd0,0xf0,0xf5,0xb0,0xda,0xbd,0xf3,0xf9,
  0xfd,0xb0,0x14,0xfa,0x0e,0xc6,0xca,0x37,0xf6,0x21,0xe5,0xf7,
  0xbf,0xcd,0x08,0x1b,0x25,0xf0,0x05,0xeb,0x11,0x3d,0xfe,0xf5,
  0x95,0x0b,0x1a,0xc5,0xd3,0xe7,0xe2,0x17,0x02,0x0a,0x14,0x25,
  0xe3,0xf1,0xaf,0x25,0xdb,0xb3,0x4d,0xb2,0x08,0x07,0xf7,0x0d,
  0x0a,0xe8,0xcd,0x08,0x59,0x39,0xbb,0xd5,0xe8,0xe7,0x12,0x03,
  0xf2,0xfd,0x1b,0xc8,0x3f,0x02,0x04,0x1a,0x34,0x46,0xc3,0xe2,
  0xad,0xd8,0x19,0x9e,0x18,0x25,0xc5,0xfd,0xfb,0x21,0xfd,0xe3,
  0x17,0x2b,0xb9,0x06,0xe6,0xee,0x3e,0x05,0xdf,0x51,0x55,0x44,
  0x22,0x1d,0x2b,0x05,0x39,0x1d,0xda,0x04,0x22,0xe7,0x4e,0x09,
  0xeb,0x11,0x19,0x37,0xd2,0x25,0x0a,0xc2,0xfe,0xe5,0xff,0x49,
  0xde,0x0d,0x2f,0xe4,0x10,0x44,0x09,0x3c,0xea,0x07,0x00,0x12,
  0xf9,0x1f,0x03,0x3d,0xef,0x18,0xcc,0xf8,0x19,0x11,0xfb,0xf8,
  0x11,0x05,0xf9,0x22,0x20,0x5a,0xd4,0xfe,0x0a,0xe5,0xef,0xf9,
  0x00,0xd3,0x1f,0xde,0x0a,0x3d,0xbf,0x19,0x20,0x27,0x0d,0x2e,
  0x1a,0x1c,0x04,0x0c,0xfe,0xfb,0x30,0xd2,0x17,0x19,0xdf,0x0f,
  0x14,0x3c,0xe0,0xf3,0xbd,0x05,0x02,0xfe,0x31,0xcb,0x1e,0x22,
  0xe4,0xe6,0x81,0x15,0x37,0x06,0xe9,0xff,0xec,0xf0,0xca,0xc6,
  0x35,0xf6,0x2c,0x24,0xed,0x11,0xa6,0xf3,0x52,0x21,0xd7,0xc0,
  0xcc,0xea,0xe2,0xe7,0x1d,0x12,0x19,0x36,0x22,0xef,0xa7,0xfc,
  0x46,0x17,0xc2,0xd9,0xd8,0x0c,0xce,0xcf,0x1c,0xdf,0x35,0xe8,
  0xc5,0xc5,0x05,0x07,0x3a,0x13,0x59,0xfa,0xd6,0x3b,0xee,0xc6,
  0x16,0x1e,0xf3,0xe4,0xce,0x0a,0xaa,0x2e,0x06,0xec,0x47,0x19,
  0xcf,0x07,0xe4,0x4b,0x35,0xcc,0xf4,0x0d,0xdd,0xdc,0x5b,0x2e,
  0x3f,0xf0,0xec,0x0b,0xc0,0xf8,0x14,0xc8,0xb3,0xb8,0x06,0x24,
  0xe3,0xd3,0x36,0xe2,0xea,0xe8,0x38,0xd7,0xa7,0xb9,0xd9,0xcc,
  0xe3,0xab,0x27,0xf9,0x2c,0xae,0x61,0x0d,0xd1,0xd9,0xb6,0x07,
  0x9e,0xbf,0x36,0xd2,0x16,0xf3,0x0c,0xf6,0xcb,0xf6,0x40,0xbc,
  0xed,0x12,0x8c,0x4a,0x81,0xa1,0x02,0xd5,0xe1,0xde,0x20,0x14,
  0x23,0x42,0x30,0x2e,0xde,0x7d,0x23,0xaf,0xa6,0xdb,0x10,0x03,
  0xe1,0xd9,0x23,0xdc,0x19,0x55,0xb2,0xc5,0xde,0x50,0x25,0xd8,
  0xec,0xd3,0x4c,0xcb,0x16,0xb2,0x15,0x29,0x23,0x5f,0x20,0xc8,
  0x06,0x16,0x12,0x06,0x00,0xda,0xf3,0xea,0xcb,0xc4,0x16,0xcf,
  0x24,0xf5,0xfe,0xf2,0xc8,0xcf,0xf3,0xe9,0x36,0xd4,0xdc,0xee,
  0xfd,0xfc,0x16,0x24,0x0c,0xfd,0x07,0xaf,0xae,0xf6,0xc6,0x1e,
  0xdc,0xeb,0x36,0xc3,0xf3,0xfa,0xdf,0xe6,0x01,0x0f,0xf7,0xe1,
  0xe1,0x18,0xb4,0x4b,0x04,0xd1,0xfa,0x05,0xda,0xf3,0x2a,0x1c,
  0x01,0x42,0xba,0xd3,0x05,0x26,0x1d,0x99,0x09,0xd2,0x04,0xd0,
  0xc5,0xb3,0x1f,0x15,0xf6,0x4b,0xe3,0x10,0xe7,0xf5,0x38,0xda,
  0xff,0xb3,0x1d,0x1f,0xbe,0xf6,0x05,0xeb,0x08,0x26,0x0b,0x07,
  0xcc,0xfd,0x1d,0xed,0xd9,0x1c,0x0e,0xde,0x70,0x85,0x06,0xef,
  0xf1,0x03,0xf9,0x29,0x47,0x37,0x03,0xf2,0xdb,0x07,0x06,0xcb,
  0x75,0x81,0x08,0xf8,0xcc,0x25,0x06,0x0b,0xfb,0x2f,0xfd,0xff,
  0xe8,0x31,0x0a,0xc2,0x3b,0xb5,0xe9,0xea,0xe7,0xd2,0xfa,0x28,
  0x29,0x36,0xe8,0x45,0xec,0x32,0x4b,0xfa,0x81,0x4b,0x22,0x19,
  0xc7,0x35,0xbb,0x39,0x5b,0xfd,0xf5,0xfb,0xf0,0x0a,0x05,0xde,
  0x07,0x51,0x0e,0x25,0xb7,0x09,0xcc,0x2a,0x16,0xe6,0xfe,0xd8,
  0xb7,0xf2,0xcf,0xcc,0x0f,0x16,0xd8,0xee,0x8f,0x53,0xb9,0xea,
  0x4b,0x1c,0x30,0x13,0x1b,0x18,0x49,0xd5,0xbd,0x1a,0x5c,0xfe,
  0xd4,0x22,0xe4,0xb5,0x23,0xe4,0xd0,0x32,0x08,0xc4,0x05,0x20,
  0x0b,0x52,0x1e,0xab,0x03,0x39,0xd4,0x25,0xc3,0xda,0xed,0x22,
  0xe5,0xb6,0xa6,0x3d,0x57,0xf1,0xe5,0xde,0x9e,0x3d,0xa9,0xfc,
  0x40,0xec,0x08,0x3f,0x97,0xf0,0x71,0x8a,0xb4,0x1e,0x3e,0x37,
  0x29,0x29,0xf2,0x0e,0x28,0x08,0xc8,0xb4,0x97,0x14,0x24,0x31,
  0xde,0x53,0x53,0x0d,0xcc,0x0a,0xd7,0x37,0x55,0x43,0xd2,0xb1,
  0x9c,0x94,0xbd,0x02,0x0d,0xff,0x08,0x18,0xb0,0xe2,0xa6,0x19,
  0x3d,0x12,0x00,0xe4,0xaf,0x3c,0xdf,0xdf,0x2e,0xc3,0x28,0xf4,
  0xd9,0x23,0xfb,0xec,0x1d,0x09,0x1e,0x4f,0xea,0x1b,0xbb,0x30,
  0x56,0xbd,0x23,0x1f,0xd2,0xfe,0x06,0x12,0x3e,0x2f,0xde,0x12,
  0xc3,0x37,0xf9,0x11,0x7f,0xd8,0x43,0x1f,0xed,0x0c,0x09,0x0a,
  0x4b,0x0d,0xd8,0x22,0xaa,0x07,0xd5,0xaa,0x0c,0xc3,0xfc,0xfc,
  0xbd,0x03,0xf1,0xfa,0xef,0xd8,0xdf,0x09,0xac,0xe8,0xa7,0xce,
  0x13,0xe7,0xef,0x2c,0xff,0xf8,0xf9,0xf9,0xf1,0xe5,0xf0,0x1f,
  0xb8,0xff,0xdb,0xfb,0xcf,0xe9,0xf9,0xf9,0xb4,0xe3,0xdf,0x10,
  0x0c,0x13,0xda,0x0a,0xeb,0x94,0xe3,0xde,0xc2,0xf5,0x2b,0x56,
  0x30,0x37,0x17,0xe1,0xd9,0x27,0xc3,0x05,0xd6,0xda,0xf1,0xbf,
  0xb3,0x04,0xd4,0x0a,0x41,0x48,0x36,0xf4,0xcd,0xe6,0xe2,0x13,
  0xe6,0xaa,0xcd,0xc5,0x84,0xf8,0x35,0x08,0x0a,0x4d,0x11,0x1b,
  0xdb,0xec,0xf4,0xd9,0x04,0x3c,0xde,0xf0,0x19,0xcd,0xf4,0x07,
  0xbb,0x1a,0xd5,0xf6,0xea,0xf4,0x44,0xb7,0xfc,0x1c,0x1b,0xc2,
  0x05,0xec,0xcc,0xde,0xdc,0xc7,0x07,0x00,0x0c,0xf0,0x22,0xb5,
  0x03,0xf2,0x15,0xf6,0x4b,0x13,0xe0,0x28,0xc3,0x2d,0xf4,0x1e,
  0x0e,0x13,0x0b,0xbe,0xac,0xb4,0x26,0xe0,0xe7,0xc2,0xc0,0x46,
  0x06,0x14,0x45,0xf8,0xe6,0x13,0xcb,0xe6,0xea,0xa9,0xd6,0xa9,
  0x0c,0xa7,0xef,0x5a,0xff,0xfb,0x2c,0xd9,0xcb,0x12,0xac,0x06,
  0xc2,0xc0,0xfe,0x99,0x24,0xce,0xf2,0x1e,0x22,0x24,0x41,0xe5,
  0x06,0xf4,0xe2,0x14,0xdb,0x0d,0x13,0xf4,0xe7,0xc7,0x9a,0x21,
  0x2b,0x2c,0x81,0x2a,0xfa,0x47,0x43,0xb7,0xb8,0x0a,0x21,0xe1,
  0x0d,0xc9,0xad,0xf1,0x19,0x28,0xd8,0x1c,0xfe,0xf9,0x5a,0xdf,
  0xf4,0x01,0x14,0xd7,0xff,0xf5,0xe0,0x21,0x00,0xe0,0xc7,0x42,
  0xfc,0x3f,0x42,0xb2,0x2f,0xac,0xff,0xe8,0xd2,0xff,0xf7,0x0f,
  0x2a,0xfe,0xdd,0xff,0x0d,0x0b,0xcd,0xfa,0xf8,0x08,0x0b,0xea,
  0xe8,0xe5,0x2c,0xf6,0x13,0x19,0xdb,0xea,0xc8,0x09,0xd4,0x05,
  0x23,0xeb,0xda,0xe4,0xdc,0x07,0x27,0xbe,0xdb,0x1c,0xe1,0xdd,
  0xdc,0xf1,0xb2,0x2b,0x31,0xc5,0xe9,0xbc,0x03,0xdd,0x28,0xf0,
  0xeb,0x1f,0xe1,0xde,0xfd,0x28,0x81,0xda,0x3b,0xf6,0x1a,0xf5,
  0xf8,0xfb,0x1d,0x18,0xc6,0x22,0xf7,0xde,0xda,0x25,0xbb,0xca,
  0x5c,0xe0,0x04,0xf5,0xe4,0x23,0x3f,0xda,0xba,0x0a,0xff,0xc3,
  0x11,0x28,0xba,0x09,0x1b,0xac,0x01,0xeb,0x03,0x29,0x16,0xef,
  0x15,0x46,0xad,0x0d,0x16,0x34,0xe2,0x5b,0xfe,0x1b,0xee,0xe6,
  0xf7,0x27,0x20,0xe5,0x27,0x4c,0x1a,0x0e,0x18,0xeb,0xeb,0x2b,
  0xfd,0x07,0x2c,0xe4,0xfa,0x3e,0x1d,0xc1,0x1e,0x38,0x17,0x0a,
  0xfa,0x1e,0xdc,0x3b,0xc0,0x29,0x95,0x24,0xdc,0xcb,0x23,0xea,
  0xd5,0xda,0xfc,0x0f,0xfd,0xec,0xc2,0xd0,0xdd,0xe5,0xb0,0xf6,
  0x06,0xad,0x2b,0xe7,0x0c,0xb0,0xf7,0xe7,0x22,0xdb,0xc9,0xb6,
  0xf7,0x36,0xb1,0xe6,0x03,0xbf,0x2d,0xf2,0x2b,0x94,0x33,0xe8,
  0x35,0xf0,0xc1,0x81,0x0e,0xe6,0xd5,0x05,0xe2,0xc8,0x48,0x3c,
  0x32,0xc2,0xe7,0x17,0x15,0x2b,0x08,0xc8,0x14,0xe5,0xbb,0xfd,
  0xf8,0xc1,0x01,0x34,0x42,0xcc,0x0f,0x1d,0xf4,0x0d,0xe8,0xda,
  0xf2,0xd3,0xf6,0x32,0xee,0xc7,0x40,0xfe,0xe9,0xbe,0x15,0xf5,
  0x29,0xf1,0x15,0xc7,0xe9,0x20,0xb5,0x2b,0x3f,0xf9,0x3c,0x22,
  0x49,0xe5,0x0d,0xed,0x01,0x47,0x17,0xc4,0xf3,0xdb,0xbc,0x31,
  0xd6,0xd5,0x02,0x0d,0x49,0xdb,0x3d,0xf5,0x1a,0x35,0x41,0x91,
  0x12,0x15,0xeb,0xfb,0xcf,0x09,0x00,0x35,0x43,0xe3,0xdf,0x39,
  0x1f,0xe3,0x4c,0xe0,0xff,0x1d,0xd6,0x21,0x0e,0x3f,0xd8,0x1c,
  0x19,0xef,0xbc,0xf2,0xfa,0x0d,0xed,0xa5,0x0d,0x1c,0xaf,0xe3,
  0xf2,0x15,0x07,0xf5,0x2c,0x13,0x98,0x04,0xe6,0x34,0xd6,0xd5,
  0xc0,0x25,0xd8,0xd3,0x0f,0x16,0x02,0x03,0x20,0xf4,0xbd,0xe9,
  0x1b,0x3d,0x0a,0xaf,0xfa,0xf7,0xd8,0x0b,0x0e,0x01,0xf4,0x20,
  0x11,0x1a,0xe9,0xd2,0x28,0x2e,0x1b,0x81,0xdd,0xea,0x16,0xfd,
  0x0e,0x0e,0x1a,0x25,0x15,0x02,0x13,0xd0,0x20,0x12,0xfc,0xa9,
  0x22,0x1c,0xec,0xf3,0x1c,0x0c,0x02,0xf1,0xbb,0xee,0xe5,0xfd,
  0x3e,0x10,0x21,0xab,0x25,0xde,0xec,0x2f,0xa8,0x17,0xf5,0x64,
  0xd0,0x2a,0xc1,0xc8,0xe1,0x2e,0xf6,0x17,0x09,0xe9,0xe3,0xf8,
  0xb1,0xfb,0x37,0x13,0x00,0x1e,0xdf,0xe2,0x0a,0x23,0x24,0xf8,
  0x0a,0xca,0xd6,0xce,0xcd,0x03,0x09,0x04,0xd0,0xef,0x0f,0xe9,
  0xed,0xcd,0x0a,0xf2,0x06,0xd8,0xf5,0xf9,0x3e,0xba,0x0e,0x0c,
  0xe4,0xfc,0xb9,0x43,0xf4,0xf4,0x1f,0x0b,0xef,0xf4,0x05,0x21,
  0x25,0xd3,0xf2,0x50,0xef,0x02,0xdd,0x17,0x1f,0x32,0xcb,0x1b,
  0xef,0x17,0x03,0xfb,0x72,0xc2,0x00,0x2a,0xf9,0x2a,0x82,0xe5,
  0xec,0xeb,0xe5,0xf9,0xeb,0x22,0xe2,0xfa,0x42,0xe1,0xff,0x53,
  0x04,0x15,0x8f,0xec,0xfe,0xc8,0xd7,0xfa,0x30,0x01,0x1e,0x01,
  0x13,0xd9,0x10,0x57,0xeb,0xb4,0xcd,0x24,0xde,0xeb,0xce,0x0f,
  0xcf,0x04,0xf7,0x34,0x2a,0xee,0x06,0x2c,0x0e,0x09,0x81,0x17,
  0x3c,0xf2,0x0d,0xe3,0x1e,0xf8,0xf5,0xe3,0x44,0x21,0x08,0x22,
  0x2f,0x1d,0xad,0x0c,0x11,0xf9,0x06,0xc9,0x09,0xd7,0x24,0xde,
  0x21,0x3d,0x14,0x22,0x11,0xf4,0x0d,0xf4,0x46,0x21,0x0e,0xb3,
  0x08,0x00,0xee,0x1a,0x2a,0x08,0xf3,0x2c,0x11,0xee,0x07,0x4e,
  0x58,0x0d,0xfd,0xd0,0xc8,0x10,0x26,0xfa,0xce,0x06,0xfc,0xf3,
  0x09,0x14,0xfb,0xe3,0xef,0x3a,0x0b,0x1e,0xb9,0x03,0xdf,0xee,
  0x15,0xf3,0x1b,0xd9,0x12,0x11,0x09,0xd5,0x39,0x1c,0x0e,0x13,
  0xc9,0xcb,0x29,0xec,0xcb,0xfa,0x03,0xe4,0x35,0xf7,0xcf,0xd1,
  0x2f,0x3d,0xfc,0x2a,0xeb,0x32,0xf9,0x1d,0x37,0x42,0xcc,0xf9,
  0xdf,0xf7,0xfe,0x90,0x11,0x31,0xe1,0x05,0x1b,0xff,0x19,0x19,
  0x0e,0xfc,0x17,0xd1,0xe7,0xfd,0x41,0x85,0x03,0x25,0xde,0xf2,
  0xd4,0x14,0x22,0xe8,0x14,0x54,0x24,0xbe,0xdc,0x23,0x0f,0x81,
  0x22,0x07,0xff,0xf7,0xb6,0xfa,0xa5,0xd6,0x05,0xf9,0xeb,0x05,
  0x0b,0xca,0x15,0xea,0x32,0xfb,0xcb,0x14,0xa3,0xe7,0xda,0x2b,
  0xcd,0xf1,0xd2,0xf4,0xe4,0x06,0xce,0xd6,0x22,0x2d,0xff,0x14,
  0xd5,0xd9,0xf7,0xe7,0xbc,0x0b,0xd0,0xfe,0xe3,0xf3,0x2a,0xea,
  0xd9,0x48,0xe7,0x26,0xf9,0xf7,0x02,0x1c,0x1b,0xa9,0x1c,0xfb,
  0xe9,0x42,0x1a,0x01,0xc6,0xd3,0xd9,0x37,0x04,0x20,0x25,0x26,
  0x21,0xb7,0xda,0x12,0xa6,0x3d,0x22,0x1e,0x23,0x0e,0xe3,0x09,
  0x14,0x0a,0xe6,0xe4,0x31,0xc7,0xfd,0xdf,0xad,0x23,0x08,0xdf,
  0x14,0xe9,0x15,0x1e,0x2f,0xfb,0xf1,0x95,0x3d,0xb0,0xf9,0x21,
  0xd8,0x07,0xcf,0xf2,0x11,0x0a,0x29,0x16,0x39,0x2b,0xd0,0xad,
  0xf3,0xa1,0x27,0xea,0xf9,0x05,0xbd,0x0c,0xfc,0x0b,0xf7,0x22,
  0xe1,0xc6,0xc7,0xf5,0xe0,0xa4,0xf7,0x0f,0x0e,0x09,0xf0,0x32,
  0xde,0xf3,0xdd,0xf8,0xf0,0xa8,0xcd,0xd5,0x03,0xe1,0x17,0xee,
  0x52,0x0a,0x3a,0xf7,0xc4,0x14,0x31,0xd1,0x11,0xcc,0x9d,0x81,
  0xdb,0xfc,0x22,0xf0,0x65,0x25,0x2d,0x02,0xb2,0x13,0x34,0xf0,
  0xce,0xc3,0xf9,0xaa,0xf8,0xa8,0xf0,0x01,0x23,0xf6,0x2b,0x17,
  0xdc,0x0f,0x14,0x07,0xcc,0x09,0x1c,0x11,0x36,0x2c,0x0e,0x6c,
  0x2b,0x20,0xfd,0xf1,0x1a,0x5d,0x23,0x08,0xe0,0xea,0x01,0xfa,
  0x3a,0x32,0x3e,0x21,0x51,0x22,0x81,0xe6,0x34,0x05,0x1c,0xf1,
  0x26,0xe2,0x16,0x1a,0x11,0x09,0x1a,0x21,0xe0,0xd7,0x84,0xd0,
  0x35,0x18,0xf0,0xf2,0xb5,0x05,0xe4,0x3f,0xd1,0x2b,0x20,0xf6,
  0xff,0xd0,0xb2,0x16,0xfa,0x07,0x1d,0x26,0x03,0x01,0x1f,0x1f,
  0x29,0xf7,0x00,0x39,0x42,0xda,0xde,0x09,0x16,0x16,0xdc,0xe0,
  0xe4,0xff,0xdb,0x13,0xf3,0xcc,0xf4,0x27,0xe7,0x02,0xe3,0xd3,
  0xf8,0xe1,0x09,0xd2,0x49,0x86,0xc5,0x06,0xaa,0xf4,0x4d,0x1f,
  0xe0,0xc8,0xc4,0xee,0xb6,0x14,0xc3,0xfc,0x32,0x9a,0xd8,0x34,
  0xc3,0xd9,0x49,0x06,0xfc,0x17,0xdf,0x06,0xc5,0x29,0x07,0xd8,
  0x49,0xa7,0xbb,0xdb,0xbe,0xb7,0x47,0xe4,0xcc,0x20,0xbf,0x08,
  0xe3,0xdf,0x19,0xdb,0x46,0xfb,0xff,0xff,0x04,0x00,0x00,0x00,
  0x80,0x00,0x00,0x00,0x09,0xfe,0xff,0xff,0x08,0xff,0xff,0xff,
  0x26,0xfd,0xff,0xff,0x7e,0xfd,0xff,0xff,0xa2,0xfe,0xff,0xff,
  0x32,0xfb,0xff,0xff,0x06,0xfe,0xff,0xff,0xcd,0xfe,0xff,0xff,
  0x1a,0x00,0x00,0x00,0x00,0xff,0xff,0xff,0x9b,0xfe,0xff,0xff,
  0xa2,0xfd,0xff,0xff,0x05,0xfe,0xff,0xff,0x6b,0xfe,0xff,0xff,
  0x7f,0xfe,0xff,0xff,0xf1,0xfc,0xff,0xff,0x8f,0xff,0xff,0xff,
  0xd3,0xfd,0xff,0xff,0x0f,0xff,0xff,0xff,0x15,0xfc,0xff,0xff,
  0x08,0x00,0x00,0x00,0xe8,0xfe,0xff,0xff,0xee,0xfc,0xff,0xff,
  0x89,0xfd,0xff,0xff,0xd0,0xfe,0xff,0xff,0x54,0xfc,0xff,0xff,
  0x91,0xfe,0xff,0xff,0xd7,0xfd,0xff,0xff,0x96,0xfd,0xff,0xff,
  0xc6,0xfd,0xff,0xff,0x7f,0xfd,0xff,0xff,0xcb,0xfe,0xff,0xff,
  0xd2,0xfb,0xff,0xff,0x04,0x00,0x00,0x00,0x20,0x00,0x00,0x00,
  0x7f,0xea,0xb2,0x35,0x06,0x22,0xf9,0xd5,0xcf,0xc0,0x09,0x5f,
  0x14,0x3f,0x14,0x2a,0xcf,0x56,0xdf,0xdf,0xf4,0x57,0x0c,0x0b,
  0x28,0xfd,0xd3,0xe5,0xcd,0xc9,0x1f,0x40,0xfe,0xfb,0xff,0xff,
  0x04,0x00,0x00,0x00,0x20,0x00,0x00,0x00,0x3f,0xeb,0xf0,0x42,
  0x52,0x58,0x43,0x2b,0x8b,0xdf,0x27,0x42,0x2e,0x39,0x37,0x44,
  0x80,0x36,0x24,0x58,0x0c,0x31,0x31,0x3a,0x2f,0x45,0x0d,0x36,
  0x45,0x41,0x38,0x2c,0x2a,0xfc,0xff,0xff,0x04,0x00,0x00,0x00,
  0x00,0x02,0x00,0x00,0x3e,0x1c,0xff,0xb8,0x46,0xf0,0xfa,0x61,
  0x1a,0x28,0x12,0xe0,0xd7,0xdd,0x4c,0x7f,0xe6,0xee,0x1a,0x0d,
  0xdf,0x23,0xf4,0xe6,0x11,0x72,0x06,0x55,0x10,0xda,0x10,0x4b,
  0xed,0xe8,0x3c,0x43,0xf6,0xc5,0xff,0xf1,0x6d,0x1c,0xc5,0x0a,
  0x10,0xe1,0x09,0x99,0x76,0xb6,0xba,0x65,0x00,0x81,0x30,0x13,
  0xa1,0x44,0xd8,0xb1,0xf8,0x3a,0xea,0xa1,0xb8,0x0f,0xbe,0x0c,
  0x23,0x07,0x23,0x15,0x1b,0xe3,0x4d,0x32,0xa8,0x0b,0x9a,0xca,
  0xaf,0xe0,0x18,0xf7,0x16,0xec,0x94,0xd8,0x43,0xed,0xfa,0x10,
  0x81,0xce,0xa5,0xfb,0xcd,0x81,0xb8,0x21,0xd2,0xcf,0xed,0x09,
  0x0a,0xdf,0x06,0xc8,0xfa,0xcf,0xe6,0xe8,0x03,0xfa,0xdc,0xe4,
  0xe4,0xee,0x0e,0x04,0x04,0x41,0xe3,0xa2,0x1f,0xee,0x19,0xd0,
  0xb8,0x3f,0x10,0x03,0x15,0xbf,0xf4,0x19,0xb5,0x4a,0xd3,0xe2,
  0xff,0x21,0x81,0xf3,0xfc,0x1a,0xed,0x0e,0x5b,0x64,0xa9,0x04,
  0x23,0xdb,0x60,0x14,0x09,0xaf,0x5e,0xe4,0x83,0xe3,0x05,0xf1,
  0xda,0xb9,0x35,0x10,0x0e,0xd6,0xea,0xca,0x0d,0xba,0x9f,0xcf,
  0x9a,0x03,0x17,0xe2,0x4e,0xd1,0xe6,0x06,0x76,0x0d,0xf3,0xbd,
  0x10,0xae,0x1a,0x81,0x0b,0xe4,0xf7,0xc1,0x14,0x21,0xb9,0xb4,
  0x7f,0xd6,0xcf,0xea,0x7d,0x13,0x1a,0xff,0xee,0xc9,0xca,0x2a,
  0x12,0xfe,0x20,0x23,0xa2,0x15,0xba,0xc6,0xeb,0xea,0x0b,0x1e,
  0x00,0x0f,0xf9,0x1c,0x16,0xe1,0x53,0xf2,0x1b,0x0c,0x1b,0x5b,
  0xf3,0x57,0x81,0xe6,0xf6,0xad,0x3f,0x33,0x39,0xe1,0xad,0x0c,
  0xdc,0xc9,0x20,0xac,0xb6,0x3f,0xf5,0xc9,0x66,0x07,0x40,0xe1,
  0xeb,0x4b,0x2a,0xf1,0x0d,0x7f,0xdb,0x43,0x41,0x48,0x35,0xd4,
  0x1c,0xe6,0x19,0xc7,0xcd,0xda,0x33,0xab,0xd1,0x05,0x31,0xe6,
  0xf4,0xf8,0x02,0xc7,0x3d,0xeb,0xf7,0x7f,0x4c,0xb9,0x13,0x4c,
  0x5a,0xe0,0x37,0xbf,0xd0,0xbc,0x17,0x4a,0xcc,0xf7,0xf6,0x1b,
  0x35,0xb1,0xb7,0x89,0x25,0x42,0x13,0x47,0xd2,0xbf,0x0c,0x16,
  0x2d,0x0a,0xee,0x1d,0xe8,0x7f,0x04,0xfa,0xe2,0x00,0x85,0xb2,
  0xb5,0xb0,0xdf,0x10,0xd1,0x5a,0x47,0x70,0xea,0xf2,0x30,0x4c,
  0xfd,0x0f,0x08,0x40,0x07,0x1b,0xd7,0xe7,0x5f,0xc0,0x81,0x37,
  0x4e,0x85,0xde,0x5a,0x5b,0xe8,0x50,0x21,0x8e,0xe3,0xdb,0x6f,
  0x11,0x23,0xd6,0xe1,0xee,0xed,0xa1,0xdf,0xd6,0x4b,0x05,0xe5,
  0x9d,0xe5,0x92,0x43,0xe3,0x0e,0x15,0xcb,0x27,0xfd,0x26,0xbd,
  0xe8,0xcb,0xec,0x2f,0x3a,0x07,0xc1,0xfd,0xdb,0x50,0x3b,0x4a,
  0x51,0x22,0xfd,0x7f,0x03,0xd0,0xe8,0x1f,0x15,0xe8,0x4a,0x38,
  0x44,0x81,0x59,0xc2,0x3a,0x19,0xc6,0x1d,0x58,0xe1,0x24,0xae,
  0x3c,0xd4,0xd8,0xb1,0x3c,0xad,0xe9,0x38,0xd7,0xc8,0x36,0xca,
  0xa3,0x78,0xc0,0xbf,0x0e,0x3b,0xc9,0xd2,0x7f,0x10,0xfa,0xcf,
  0x25,0x19,0xa5,0x00,0x63,0xe0,0xef,0x42,0x32,0xe5,0x42,0x0f,
  0xfc,0xd5,0x9c,0x39,0xbe,0xe4,0x0b,0x1e,0x84,0x7d,0xbc,0x12,
  0xcc,0xc6,0x13,0x62,0xc1,0x33,0x02,0xde,0x0a,0x2c,0x1f,0xd4,
  0xde,0xd3,0xed,0x2a,0x07,0x46,0xd4,0x31,0xe9,0x1c,0x4b,0xe6,
  0x3a,0x5f,0xff,0x56,0x32,0xd8,0xf0,0xe9,0xf5,0x10,0x08,0x7f,
  0x36,0xfe,0xff,0xff,0x04,0x00,0x00,0x00,0x40,0x00,0x00,0x00,
  0x94,0xff,0xff,0xff,0xfd,0x06,0x00,0x00,0xd7,0x0b,0x00,0x00,
  0x41,0x01,0x00,0x00,0xec,0xfe,0xff,0xff,0x78,0x04,0x00,0x00,
  0x00,0xfa,0xff,0xff,0x68,0x02,0x00,0x00,0x0f,0xff,0xff,0xff,
  0xa6,0x00,0x00,0x00,0xcf,0xf8,0xff,0xff,0x22,0xfc,0xff,0xff,
  0x4a,0x02,0x00,0x00,0x05,0x04,0x00,0x00,0xd6,0x01,0x00,0x00,
  0xf8,0x00,0x00,0x00,0x82,0xfe,0xff,0xff,0x04,0x00,0x00,0x00,
  0x60,0x00,0x00,0x00,0xe2,0xe9,0x11,0x81,0x03,0x0c,0xf9,0x2d,
  0xfd,0x9b,0xde,0xdb,0x2c,0xbc,0xff,0x35,0xdb,0x35,0x81,0x1d,
  0xb9,0x04,0x30,0x92,0x00,0xc4,0x1f,0xc7,0x07,0x28,0x2c,0xd7,
  0x2d,0x81,0x05,0xff,0x01,0x2d,0xb2,0xe3,0xa3,0x15,0x0e,0xc6,
  0x33,0xac,0xa6,0x38,0x98,0x26,0x25,0x3e,0xd1,0x34,0xe3,0x24,
  0xbe,0x12,0x81,0x0c,0xc3,0x0d,0xbd,0xd7,0xbb,0x58,0x1f,0xcf,
  0xf6,0x28,0xb3,0x5c,0x2a,0x36,0x61,0x0a,0x1a,0x17,0x81,0x16,
  0x3b,0x1b,0x0f,0xdb,0x81,0x8d,0xce,0xcf,0x28,0x3b,0xee,0x45,
  0x95,0x13,0x12,0xf5,0xee,0xfe,0xff,0xff,0x04,0x00,0x00,0x00,
  0x18,0x00,0x00,0x00,0xc6,0x00,0x00,0x00,0xfa,0xfc,0xff,0xff,
  0x0e,0x04,0x00,0x00,0xb2,0x01,0x00,0x00,0xf8,0xfa,0xff,0xff,
  0xb7,0x00,0x00,0x00,0x12,0xff,0xff,0xff,0x04,0x00,0x00,0x00,
  0x08,0x00,0x00,0x00,0x01,0x00,0x00,0x00,0x02,0x00,0x00,0x00,
  0xac,0xe1,0xff,0xff,0xb0,0xe1,0xff,0xff,0x0f,0x00,0x00,0x00,
  0x4d,0x4c,0x49,0x52,0x20,0x43,0x6f,0x6e,0x76,0x65,0x72,0x74,
  0x65,0x64,0x2e,0x00,0x01,0x00,0x00,0x00,0x14,0x00,0x00,0x00,
  0x00,0x00,0x0e,0x00,0x18,0x00,0x14,0x00,0x10,0x00,0x0c,0x00,
  0x08,0x00,0x04,0x00,0x0e,0x00,0x00,0x00,0x14,0x00,0x00,0x00,
  0x1c,0x00,0x00,0x00,0x50,0x04,0x00,0x00,0x54,0x04,0x00,0x00,
  0x58,0x04,0x00,0x00,0x04,0x00,0x00,0x00,0x6d,0x61,0x69,0x6e,
  0x00,0x00,0x00,0x00,0x12,0x00,0x00,0x00,0x18,0x04,0x00,0x00,
  0xbc,0x03,0x00,0x00,0x58,0x03,0x00,0x00,0x24,0x03,0x00,0x00,
  0xf0,0x02,0x00,0x00,0xac,0x02,0x00,0x00,0x68,0x02,0x00,0x00,
  0x34,0x02,0x00,0x00,0x00,0x02,0x00,0x00,0xbc,0x01,0x00,0x00,
  0x78,0x01,0x00,0x00,0x44,0x01,0x00,0x00,0x10,0x01,0x00,0x00,
  0xdc,0x00,0x00,0x00,0x98,0x00,0x00,0x00,0x60,0x00,0x00,0x00,
  0x24,0x00,0x00,0x00,0x04,0x00,0x00,0x00,0x3a,0xfc,0xff,0xff,
  0x08,0x00,0x00,0x00,0x0c,0x00,0x00,0x00,0x01,0x00,0x00,0x00,
  0x23,0x00,0x00,0x00,0x01,0x00,0x00,0x00,0x22,0x00,0x00,0x00,
  0xb2,0xfc,0xff,0xff,0x1c,0x00,0x00,0x00,0x00,0x00,0x00,0x09,
  0x1c,0x00,0x00,0x00,0x20,0x00,0x00,0x00,0x07,0x00,0x00,0x00,
  0x00,0x00,0x06,0x00,0x08,0x00,0x04,0x00,0x06,0x00,0x00,0x00,
  0x00,0x00,0x80,0x3f,0x01,0x00,0x00,0x00,0x22,0x00,0x00,0x00,
  0x01,0x00,0x00,0x00,0x21,0x00,0x00,0x00,0xea,0xfc,0xff,0xff,
  0x14,0x00,0x00,0x00,0x00,0x00,0x00,0x08,0x10,0x00,0x00,0x00,
  0x14,0x00,0x00,0x00,0x06,0x00,0x00,0x00,0xbc,0xe2,0xff,0xff,
  0x01,0x00,0x00,0x00,0x21,0x00,0x00,0x00,0x03,0x00,0x00,0x00,
  0x20,0x00,0x00,0x00,0x03,0x00,0x00,0x00,0x02,0x00,0x00,0x00,
  0x1e,0xfd,0xff,0xff,0x1c,0x00,0x00,0x00,0x00,0x00,0x00,0x08,
  0x1c,0x00,0x00,0x00,0x20,0x00,0x00,0x00,0x06,0x00,0x00,0x00,
  0x00,0x00,0x06,0x00,0x08,0x00,0x07,0x00,0x06,0x00,0x00,0x00,
  0x00,0x00,0x00,0x01,0x01,0x00,0x00,0x00,0x20,0x00,0x00,0x00,
  0x03,0x00,0x00,0x00,0x1f,0x00,0x00,0x00,0x05,0x00,0x00,0x00,
  0x04,0x00,0x00,0x00,0x5e,0xfd,0xff,0xff,0x14,0x00,0x00,0x00,
  0x00,0x00,0x00,0x1b,0x10,0x00,0x00,0x00,0x14,0x00,0x00,0x00,
  0x05,0x00,0x00,0x00,0x30,0xe3,0xff,0xff,0x01,0x00,0x00,0x00,
  0x1f,0x00,0x00,0x00,0x02,0x00,0x00,0x00,0x1e,0x00,0x00,0x00,
  0x01,0x00,0x00,0x00,0x8e,0xfd,0xff,0xff,0x14,0x00,0x00,0x00,
  0x00,0x00,0x00,0x0b,0x10,0x00,0x00,0x00,0x14,0x00,0x00,0x00,
  0x04,0x00,0x00,0x00,0x60,0xe3,0xff,0xff,0x01,0x00,0x00,0x00,
  0x1e,0x00,0x00,0x00,0x02,0x00,0x00,0x00,0x1d,0x00,0x00,0x00,
  0x06,0x00,0x00,0x00,0xbe,0xfd,0xff,0xff,0x14,0x00,0x00,0x00,
  0x00,0x00,0x00,0x15,0x10,0x00,0x00,0x00,0x14,0x00,0x00,0x00,
  0x03,0x00,0x00,0x00,0x90,0xe3,0xff,0xff,0x01,0x00,0x00,0x00,
  0x1d,0x00,0x00,0x00,0x02,0x00,0x00,0x00,0x1c,0x00,0x00,0x00,
  0x07,0x00,0x00,0x00,0xee,0xfd,0xff,0xff,0x14,0x00,0x00,0x00,
  0x00,0x00,0x00,0x05,0x24,0x00,0x00,0x00,0x28,0x00,0x00,0x00,
  0x02,0x00,0x00,0x00,0x3e,0xfe,0xff,0xff,0x02,0x00,0x00,0x00,
  0x02,0x00,0x00,0x00,0x02,0x00,0x00,0x00,0x02,0x00,0x00,0x00,
  0x00,0x00,0x00,0x01,0x01,0x00,0x00,0x00,0x1c,0x00,0x00,0x00,
  0x01,0x00,0x00,0x00,0x1b,0x00,0x00,0x00,0x2e,0xfe,0xff,0xff,
  0x14,0x00,0x00,0x00,0x00,0x00,0x00,0x01,0x1c,0x00,0x00,0x00,
  0x20,0x00,0x00,0x00,0x01,0x00,0x00,0x00,0x20,0xfe,0xff,0xff,
  0x00,0x00,0x00,0x01,0x01,0x00,0x00,0x00,0x01,0x00,0x00,0x00,
  0x01,0x00,0x00,0x00,0x1b,0x00,0x00,0x00,0x03,0x00,0x00,0x00,
  0x1a,0x00,0x00,0x00,0x09,0x00,0x00,0x00,0x08,0x00,0x00,0x00,
  0x6e,0xfe,0xff,0xff,0x14,0x00,0x00,0x00,0x00,0x00,0x00,0x0b,
  0x10,0x00,0x00,0x00,0x14,0x00,0x00,0x00,0x04,0x00,0x00,0x00,
  0x40,0xe4,0xff,0xff,0x01,0x00,0x00,0x00,0x1a,0x00,0x00,0x00,
  0x02,0x00,0x00,0x00,0x19,0x00,0x00,0x00,0x0a,0x00,0x00,0x00,
  0x9e,0xfe,0xff,0xff,0x14,0x00,0x00,0x00,0x00,0x00,0x00,0x15,
  0x10,0x00,0x00,0x00,0x14,0x00,0x00,0x00,0x03,0x00,0x00,0x00,
  0x70,0xe4,0xff,0xff,0x01,0x00,0x00,0x00,0x19,0x00,0x00,0x00,
  0x02,0x00,0x00,0x00,0x18,0x00,0x00,0x00,0x0b,0x00,0x00,0x00,
  0xce,0xfe,0xff,0xff,0x14,0x00,0x00,0x00,0x00,0x00,0x00,0x05,
  0x24,0x00,0x00,0x00,0x28,0x00,0x00,0x00,0x02,0x00,0x00,0x00,
  0x1e,0xff,0xff,0xff,0x02,0x00,0x00,0x00,0x02,0x00,0x00,0x00,
  0x02,0x00,0x00,0x00,0x02,0x00,0x00,0x00,0x00,0x00,0x00,0x01,
  0x01,0x00,0x00,0x00,0x18,0x00,0x00,0x00,0x01,0x00,0x00,0x00,
  0x17,0x00,0x00,0x00,0x0e,0xff,0xff,0xff,0x14,0x00,0x00,0x00,
  0x00,0x00,0x00,0x01,0x1c,0x00,0x00,0x00,0x20,0x00,0x00,0x00,
  0x01,0x00,0x00,0x00,0x00,0xff,0xff,0xff,0x00,0x00,0x00,0x01,
  0x01,0x00,0x00,0x00,0x01,0x00,0x00,0x00,0x01,0x00,0x00,0x00,
  0x17,0x00,0x00,0x00,0x03,0x00,0x00,0x00,0x16,0x00,0x00,0x00,
  0x0d,0x00,0x00,0x00,0x0c,0x00,0x00,0x00,0x4e,0xff,0xff,0xff,
  0x14,0x00,0x00,0x00,0x00,0x00,0x00,0x0b,0x10,0x00,0x00,0x00,
  0x14,0x00,0x00,0x00,0x04,0x00,0x00,0x00,0x20,0xe5,0xff,0xff,
  0x01,0x00,0x00,0x00,0x16,0x00,0x00,0x00,0x02,0x00,0x00,0x00,
  0x15,0x00,0x00,0x00,0x0e,0x00,0x00,0x00,0x7e,0xff,0xff,0xff,
  0x14,0x00,0x00,0x00,0x00,0x00,0x00,0x15,0x10,0x00,0x00,0x00,
  0x14,0x00,0x00,0x00,0x03,0x00,0x00,0x00,0x50,0xe5,0xff,0xff,
  0x01,0x00,0x00,0x00,0x15,0x00,0x00,0x00,0x02,0x00,0x00,0x00,
  0x14,0x00,0x00,0x00,0x0f,0x00,0x00,0x00,0xae,0xff,0xff,0xff,
  0x24,0x00,0x00,0x00,0x00,0x00,0x00,0x05,0x34,0x00,0x00,0x00,
  0x38,0x00,0x00,0x00,0x02,0x00,0x00,0x00,0x00,0x00,0x0e,0x00,
  0x18,0x00,0x17,0x00,0x10,0x00,0x0c,0x00,0x08,0x00,0x04,0x00,
  0x0e,0x00,0x00,0x00,0x02,0x00,0x00,0x00,0x02,0x00,0x00,0x00,
  0x02,0x00,0x00,0x00,0x02,0x00,0x00,0x00,0x00,0x00,0x00,0x01,
  0x01,0x00,0x00,0x00,0x14,0x00,0x00,0x00,0x01,0x00,0x00,0x00,
  0x13,0x00,0x00,0x00,0x00,0x00,0x0e,0x00,0x18,0x00,0x14,0x00,
  0x10,0x00,0x0c,0x00,0x0b,0x00,0x04,0x00,0x0e,0x00,0x00,0x00,
  0x20,0x00,0x00,0x00,0x00,0x00,0x00,0x01,0x28,0x00,0x00,0x00,
  0x2c,0x00,0x00,0x00,0x01,0x00,0x00,0x00,0x0c,0x00,0x10,0x00,
  0x00,0x00,0x0c,0x00,0x08,0x00,0x07,0x00,0x0c,0x00,0x00,0x00,
  0x00,0x00,0x00,0x01,0x01,0x00,0x00,0x00,0x01,0x00,0x00,0x00,
  0x01,0x00,0x00,0x00,0x13,0x00,0x00,0x00,0x03,0x00,0x00,0x00,
  0x12,0x00,0x00,0x00,0x11,0x00,0x00,0x00,0x10,0x00,0x00,0x00,
  0x00,0x00,0x0a,0x00,0x0c,0x00,0x00,0x00,0x08,0x00,0x04,0x00,
  0x0a,0x00,0x00,0x00,0x08,0x00,0x00,0x00,0x0c,0x00,0x00,0x00,
  0x01,0x00,0x00,0x00,0x12,0x00,0x00,0x00,0x01,0x00,0x00,0x00,
  0x00,0x00,0x00,0x00,0x01,0x00,0x00,0x00,0x23,0x00,0x00,0x00,
  0x01,0x00,0x00,0x00,0x00,0x00,0x00,0x00,0x24,0x00,0x00,0x00,
  0xec,0x19,0x00,0x00,0x90,0x19,0x00,0x00,0xd8,0x18,0x00,0x00,
  0x34,0x18,0x00,0x00,0x20,0x17,0x00,0x00,0x04,0x16,0x00,0x00,
  0xa0,0x15,0x00,0x00,0x3c,0x15,0x00,0x00,0x68,0x13,0x00,0x00,
  0x84,0x11,0x00,0x00,0x20,0x11,0x00,0x00,0xbc,0x10,0x00,0x00,
  0xa8,0x0f,0x00,0x00,0x84,0x0e,0x00,0x00,0x20,0x0e,0x00,0x00,
  0xbc,0x0d,0x00,0x00,0x08,0x0d,0x00,0x00,0x44,0x0c,0x00,0x00,
  0xc0,0x0b,0x00,0x00,0xcc,0x0a,0x00,0x00,0x30,0x0a,0x00,0x00,
  0x84,0x09,0x00,0x00,0xd8,0x08,0x00,0x00,0xdc,0x07,0x00,0x00,
  0x40,0x07,0x00,0x00,0x94,0x06,0x00,0x00,0xe8,0x05,0x00,0x00,
  0xec,0x04,0x00,0x00,0x50,0x04,0x00,0x00,0xa4,0x03,0x00,0x00,
  0xf8,0x02,0x00,0x00,0x64,0x02,0x00,0x00,0xa8,0x01,0x00,0x00,
  0x04,0x01,0x00,0x00,0x80,0x00,0x00,0x00,0x04,0x00,0x00,0x00,
  0xba,0xe6,0xff,0xff,0x00,0x00,0x00,0x01,0x18,0x00,0x00,0x00,
  0x20,0x00,0x00,0x00,0x3c,0x00,0x00,0x00,0x24,0x00,0x00,0x00,
  0x00,0x00,0x00,0x03,0x50,0x00,0x00,0x00,0x02,0x00,0x00,0x00,
  0xff,0xff,0xff,0xff,0x06,0x00,0x00,0x00,0x9c,0xe6,0xff,0xff,
  0x08,0x00,0x00,0x00,0x10,0x00,0x00,0x00,0x01,0x00,0x00,0x00,
  0x00,0x00,0x00,0x00,0x00,0x00,0x00,0x00,0x01,0x00,0x00,0x00,
  0x00,0x00,0x80,0x3b,0x1b,0x00,0x00,0x00,0x53,0x74,0x61,0x74,
  0x65,0x66,0x75,0x6c,0x50,0x61,0x72,0x74,0x69,0x74,0x69,0x6f,
  0x6e,0x65,0x64,0x43,0x61,0x6c,0x6c,0x5f,0x31,0x3a,0x30,0x00,
  0x02,0x00,0x00,0x00,0x01,0x00,0x00,0x00,0x06,0x00,0x00,0x00,
  0x32,0xe7,0xff,0xff,0x00,0x00,0x00,0x01,0x18,0x00,0x00,0x00,
  0x20,0x00,0x00,0x00,0x40,0x00,0x00,0x00,0x23,0x00,0x00,0x00,
  0x00,0x00,0x00,0x09,0x58,0x00,0x00,0x00,0x02,0x00,0x00,0x00,
  0xff,0xff,0xff,0xff,0x06,0x00,0x00,0x00,0x14,0xe7,0xff,0xff,
  0x08,0x00,0x00,0x00,0x14,0x00,0x00,0x00,0x01,0x00,0x00,0x00,
  0x80,0xff,0xff,0xff,0xff,0xff,0xff,0xff,0x00,0x00,0x00,0x00,
  0x01,0x00,0x00,0x00,0x00,0x00,0x80,0x3b,0x1c,0x00,0x00,0x00,
  0x53,0x74,0x61,0x74,0x65,0x66,0x75,0x6c,0x50,0x61,0x72,0x74,
  0x69,0x74,0x69,0x6f,0x6e,0x65,0x64,0x43,0x61,0x6c,0x6c,0x5f,
  0x31,0x3a,0x30,0x31,0x00,0x00,0x00,0x00,0x02,0x00,0x00,0x00,
  0x01,0x00,0x00,0x00,0x06,0x00,0x00,0x00,0xb2,0xe7,0xff,0xff,
  0x00,0x00,0x00,0x01,0x18,0x00,0x00,0x00,0x20,0x00,0x00,0x00,
  0x3c,0x00,0x00,0x00,0x22,0x00,0x00,0x00,0x00,0x00,0x00,0x09,
  0x78,0x00,0x00,0x00,0x02,0x00,0x00,0x00,0xff,0xff,0xff,0xff,
  0x06,0x00,0x00,0x00,0x94,0xe7,0xff,0xff,0x08,0x00,0x00,0x00,
  0x10,0x00,0x00,0x00,0x01,0x00,0x00,0x00,0x19,0x00,0x00,0x00,
  0x00,0x00,0x00,0x00,0x01,0x00,0x00,0x00,0xf3,0x38,0x9a,0x3d,
  0x40,0x00,0x00,0x00,0x66,0x75,0x6e,0x63,0x74,0x69,0x6f,0x6e,
  0x61,0x6c,0x5f,0x31,0x5f,0x31,0x2f,0x64,0x65,0x6e,0x73,0x65,
  0x5f,0x31,0x5f,0x32,0x2f,0x4d,0x61,0x74,0x4d,0x75,0x6c,0x3b,
  0x66,0x75,0x6e,0x63,0x74,0x69,0x6f,0x6e,0x61,0x6c,0x5f,0x31,
  0x5f,0x31,0x2f,0x64,0x65,0x6e,0x73,0x65,0x5f,0x31,0x5f,0x32,
  0x2f,0x42,0x69,0x61,0x73,0x41,0x64,0x64,0x00,0x00,0x00,0x00,
  0x02,0x00,0x00,0x00,0x01,0x00,0x00,0x00,0x06,0x00,0x00,0x00,
  0x52,0xe8,0xff,0xff,0x00,0x00,0x00,0x01,0x18,0x00,0x00,0x00,
  0x20,0x00,0x00,0x00,0x3c,0x00,0x00,0x00,0x21,0x00,0x00,0x00,
  0x00,0x00,0x00,0x09,0x90,0x00,0x00,0x00,0x02,0x00,0x00,0x00,
  0xff,0xff,0xff,0xff,0x10,0x00,0x00,0x00,0x34,0xe8,0xff,0xff,
  0x08,0x00,0x00,0x00,0x10,0x00,0x00,0x00,0x01,0x00,0x00,0x00,
  0x80,0xff,0xff,0xff,0xff,0xff,0xff,0xff,0x01,0x00,0x00,0x00,
  0x0a,0xaa,0xc4,0x3c,0x58,0x00,0x00,0x00,0x66,0x75,0x6e,0x63,
  0x74,0x69,0x6f,0x6e,0x61,0x6c,0x5f,0x31,0x5f,0x31,0x2f,0x64,
  0x65,0x6e,0x73,0x65,0x5f,0x31,0x2f,0x4d,0x61,0x74,0x4d,0x75,
  0x6c,0x3b,0x66,0x75,0x6e,0x63,0x74,0x69,0x6f,0x6e,0x61,0x6c,
  0x5f,0x31,0x5f,0x31,0x2f,0x64,0x65,0x6e,0x73,0x65,0x5f,0x31,
  0x2f,0x52,0x65,0x6c,0x75,0x3b,0x66,0x75,0x6e,0x63,0x74,0x69,
  0x6f,0x6e,0x61,0x6c,0x5f,0x31,0x5f,0x31,0x2f,0x64,0x65,0x6e,
  0x73,0x65,0x5f,0x31,0x2f,0x42,0x69,0x61,0x73,0x41,0x64,0x64,
  0x00,0x00,0x00,0x00,0x02,0x00,0x00,0x00,0x01,0x00,0x00,0x00,
  0x10,0x00,0x00,0x00,0x0a,0xe9,0xff,0xff,0x00,0x00,0x00,0x01,
  0x18,0x00,0x00,0x00,0x20,0x00,0x00,0x00,0x40,0x00,0x00,0x00,
  0x20,0x00,0x00,0x00,0x00,0x00,0x00,0x09,0x68,0x00,0x00,0x00,
  0x02,0x00,0x00,0x00,0xff,0xff,0xff,0xff,0x20,0x00,0x00,0x00,
  0xec,0xe8,0xff,0xff,0x08,0x00,0x00,0x00,0x14,0x00,0x00,0x00,
  0x01,0x00,0x00,0x00,0xbf,0xff,0xff,0xff,0xff,0xff,0xff,0xff,
  0x00,0x00,0x00,0x00,0x01,0x00,0x00,0x00,0x29,0xb0,0xcc,0x3c,
  0x2e,0x00,0x00,0x00,0x66,0x75,0x6e,0x63,0x74,0x69,0x6f,0x6e,
  0x61,0x6c,0x5f,0x31,0x5f,0x31,0x2f,0x67,0x6c,0x6f,0x62,0x61,
  0x6c,0x5f,0x61,0x76,0x65,0x72,0x61,0x67,0x65,0x5f,0x70,0x6f,
  0x6f,0x6c,0x69,0x6e,0x67,0x32,0x64,0x5f,0x31,0x2f,0x4d,0x65,
  0x61,0x6e,0x00,0x00,0x02,0x00,0x00,0x00,0x01,0x00,0x00,0x00,
  0x20,0x00,0x00,0x00,0x9a,0xe9,0xff,0xff,0x00,0x00,0x00,0x01,
  0x18,0x00,0x00,0x00,0x28,0x00,0x00,0x00,0x48,0x00,0x00,0x00,
  0x1f,0x00,0x00,0x00,0x00,0x00,0x00,0x09,0x78,0x00,0x00,0x00,
  0x04,0x00,0x00,0x00,0xff,0xff,0xff,0xff,0x08,0x00,0x00,0x00,
  0x08,0x00,0x00,0x00,0x20,0x00,0x00,0x00,0x84,0xe9,0xff,0xff,
  0x08,0x00,0x00,0x00,0x14,0x00,0x00,0x00,0x01,0x00,0x00,0x00,
  0x88,0xff,0xff,0xff,0xff,0xff,0xff,0xff,0x00,0x00,0x00,0x00,
  0x01,0x00,0x00,0x00,0xeb,0x12,0x71,0x3e,0x36,0x00,0x00,0x00,
  0x66,0x75,0x6e,0x63,0x74,0x69,0x6f,0x6e,0x61,0x6c,0x5f,0x31,
  0x5f,0x31,0x2f,0x62,0x61,0x74,0x63,0x68,0x5f,0x6e,0x6f,0x72,
  0x6d,0x61,0x6c,0x69,0x7a,0x61,0x74,0x69,0x6f,0x6e,0x5f,0x32,
  0x5f,0x31,0x2f,0x62,0x61,0x74,0x63,0x68,0x6e,0x6f,0x72,0x6d,
  0x2f,0x61,0x64,0x64,0x5f,0x31,0x00,0x00,0x04,0x00,0x00,0x00,
  0x01,0x00,0x00,0x00,0x08,0x00,0x00,0x00,0x08,0x00,0x00,0x00,
  0x20,0x00,0x00,0x00,0x42,0xea,0xff,0xff,0x00,0x00,0x00,0x01,
  0x18,0x00,0x00,0x00,0x28,0x00,0x00,0x00,0x48,0x00,0x00,0x00,
  0x1e,0x00,0x00,0x00,0x00,0x00,0x00,0x09,0x78,0x00,0x00,0x00,
  0x04,0x00,0x00,0x00,0xff,0xff,0xff,0xff,0x08,0x00,0x00,0x00,
  0x08,0x00,0x00,0x00,0x20,0x00,0x00,0x00,0x2c,0xea,0xff,0xff,
  0x08,0x00,0x00,0x00,0x14,0x00,0x00,0x00,0x01,0x00,0x00,0x00,
  0x88,0xff,0xff,0xff,0xff,0xff,0xff,0xff,0x00,0x00,0x00,0x00,
  0x01,0x00,0x00,0x00,0xa9,0x1a,0x76,0x3e,0x36,0x00,0x00,0x00,
  0x66,0x75,0x6e,0x63,0x74,0x69,0x6f,0x6e,0x61,0x6c,0x5f,0x31,
  0x5f,0x31,0x2f,0x62,0x61,0x74,0x63,0x68,0x5f,0x6e,0x6f,0x72,
  0x6d,0x61,0x6c,0x69,0x7a,0x61,0x74,0x69,0x6f,0x6e,0x5f,0x32,
  0x5f,0x31,0x2f,0x62,0x61,0x74,0x63,0x68,0x6e,0x6f,0x72,0x6d,
  0x2f,0x6d,0x75,0x6c,0x5f,0x31,0x00,0x00,0x04,0x00,0x00,0x00,
  0x01,0x00,0x00,0x00,0x08,0x00,0x00,0x00,0x08,0x00,0x00,0x00,
  0x20,0x00,0x00,0x00,0xea,0xea,0xff,0xff,0x00,0x00,0x00,0x01,
  0x18,0x00,0x00,0x00,0x28,0x00,0x00,0x00,0x44,0x00,0x00,0x00,
  0x1d,0x00,0x00,0x00,0x00,0x00,0x00,0x09,0x68,0x00,0x00,0x00,
  0x04,0x00,0x00,0x00,0xff,0xff,0xff,0xff,0x08,0x00,0x00,0x00,
  0x08,0x00,0x00,0x00,0x20,0x00,0x00,0x00,0xd4,0xea,0xff,0xff,
  0x08,0x00,0x00,0x00,0x10,0x00,0x00,0x00,0x01,0x00,0x00,0x00,
  0x80,0xff,0xff,0xff,0xff,0xff,0xff,0xff,0x01,0x00,0x00,0x00,
  0x59,0xc1,0x05,0x3e,0x2a,0x00,0x00,0x00,0x66,0x75,0x6e,0x63,
  0x74,0x69,0x6f,0x6e,0x61,0x6c,0x5f,0x31,0x5f,0x31,0x2f,0x6d,
  0x61,0x78,0x5f,0x70,0x6f,0x6f,0x6c,0x69,0x6e,0x67,0x32,0x64,
  0x5f,0x32,0x5f,0x31,0x2f,0x4d,0x61,0x78,0x50,0x6f,0x6f,0x6c,
  0x32,0x64,0x00,0x00,0x04,0x00,0x00,0x00,0x01,0x00,0x00,0x00,
  0x08,0x00,0x00,0x00,0x08,0x00,0x00,0x00,0x20,0x00,0x00,0x00,
  0x82,0xeb,0xff,0xff,0x00,0x00,0x00,0x01,0x18,0x00,0x00,0x00,
  0x28,0x00,0x00,0x00,0x44,0x00,0x00,0x00,0x1c,0x00,0x00,0x00,
  0x00,0x00,0x00,0x09,0xc8,0x00,0x00,0x00,0x04,0x00,0x00,0x00,
  0xff,0xff,0xff,0xff,0x10,0x00,0x00,0x00,0x10,0x00,0x00,0x00,
  0x20,0x00,0x00,0x00,0x6c,0xeb,0xff,0xff,0x08,0x00,0x00,0x00,
  0x10,0x00,0x00,0x00,0x01,0x00,0x00,0x00,0x80,0xff,0xff,0xff,
  0xff,0xff,0xff,0xff,0x01,0x00,0x00,0x00,0x59,0xc1,0x05,0x3e,
  0x88,0x00,0x00,0x00,0x66,0x75,0x6e,0x63,0x74,0x69,0x6f,0x6e,
  0x61,0x6c,0x5f,0x31,0x5f,0x31,0x2f,0x63,0x6f,0x6e,0x76,0x32,
  0x64,0x5f,0x32,0x5f,0x31,0x2f,0x52,0x65,0x6c,0x75,0x3b,0x66,
  0x75,0x6e,0x63,0x74,0x69,0x6f,0x6e,0x61,0x6c,0x5f,0x31,0x5f,
  0x31,0x2f,0x63,0x6f,0x6e,0x76,0x32,0x64,0x5f,0x32,0x5f,0x31,
  0x2f,0x42,0x69,0x61,0x73,0x41,0x64,0x64,0x3b,0x66,0x75,0x6e,
  0x63,0x74,0x69,0x6f,0x6e,0x61,0x6c,0x5f,0x31,0x5f,0x31,0x2f,
  0x63,0x6f,0x6e,0x76,0x32,0x64,0x5f,0x32,0x5f,0x31,0x2f,0x63,
  0x6f,0x6e,0x76,0x6f,0x6c,0x75,0x74,0x69,0x6f,0x6e,0x3b,0x66,
  0x75,0x6e,0x63,0x74,0x69,0x6f,0x6e,0x61,0x6c,0x5f,0x31,0x5f,
  0x31,0x2f,0x63,0x6f,0x6e,0x76,0x32,0x64,0x5f,0x32,0x5f,0x31,
  0x2f,0x53,0x71,0x75,0x65,0x65,0x7a,0x65,0x00,0x00,0x00,0x00,
  0x04,0x00,0x00,0x00,0x01,0x00,0x00,0x00,0x10,0x00,0x00,0x00,
  0x10,0x00,0x00,0x00,0x20,0x00,0x00,0x00,0x7a,0xec,0xff,0xff,
  0x00,0x00,0x00,0x01,0x18,0x00,0x00,0x00,0x28,0x00,0x00,0x00,
  0x48,0x00,0x00,0x00,0x1b,0x00,0x00,0x00,0x00,0x00,0x00,0x09,
  0x78,0x00,0x00,0x00,0x04,0x00,0x00,0x00,0xff,0xff,0xff,0xff,
  0x10,0x00,0x00,0x00,0x10,0x00,0x00,0x00,0x10,0x00,0x00,0x00,
  0x64,0xec,0xff,0xff,0x08,0x00,0x00,0x00,0x14,0x00,0x00,0x00,
  0x01,0x00,0x00,0x00,0x86,0xff,0xff,0xff,0xff,0xff,0xff,0xff,
  0x00,0x00,0x00,0x00,0x01,0x00,0x00,0x00,0x7f,0xb2,0x4d,0x3e,
  0x36,0x00,0x00,0x00,0x66,0x75,0x6e,0x63,0x74,0x69,0x6f,0x6e,
  0x61,0x6c,0x5f,0x31,0x5f,0x31,0x2f,0x62,0x61,0x74,0x63,0x68,
  0x5f,0x6e,0x6f,0x72,0x6d,0x61,0x6c,0x69,0x7a,0x61,0x74,0x69,
  0x6f,0x6e,0x5f,0x31,0x5f,0x32,0x2f,0x62,0x61,0x74,0x63,0x68,
  0x6e,0x6f,0x72,0x6d,0x2f,0x61,0x64,0x64,0x5f,0x31,0x00,0x00,
  0x04,0x00,0x00,0x00,0x01,0x00,0x00,0x00,0x10,0x00,0x00,0x00,
  0x10,0x00,0x00,0x00,0x10,0x00,0x00,0x00,0x22,0xed,0xff,0xff,
  0x00,0x00,0x00,0x01,0x18,0x00,0x00,0x00,0x28,0x00,0x00,0x00,
  0x48,0x00,0x00,0x00,0x1a,0x00,0x00,0x00,0x00,0x00,0x00,0x09,
  0x78,0x00,0x00,0x00,0x04,0x00,0x00,0x00,0xff,0xff,0xff,0xff,
  0x10,0x00,0x00,0x00,0x10,0x00,0x00,0x00,0x10,0x00,0x00,0x00,
  0x0c,0xed,0xff,0xff,0x08,0x00,0x00,0x00,0x14,0x00,0x00,0x00,
  0x01,0x00,0x00,0x00,0x86,0xff,0xff,0xff,0xff,0xff,0xff,0xff,
  0x00,0x00,0x00,0x00,0x01,0x00,0x00,0x00,0x92,0x0d,0x4e,0x3e,
  0x36,0x00,0x00,0x00,0x66,0x75,0x6e,0x63,0x74,0x69,0x6f,0x6e,
  0x61,0x6c,0x5f,0x31,0x5f,0x31,0x2f,0x62,0x61,0x74,0x63,0x68,
  0x5f,0x6e,0x6f,0x72,0x6d,0x61,0x6c,0x69,0x7a,0x61,0x74,0x69,
  0x6f,0x6e,0x5f,0x31,0x5f,0x32,0x2f,0x62,0x61,0x74,0x63,0x68,
  0x6e,0x6f,0x72,0x6d,0x2f,0x6d,0x75,0x6c,0x5f,0x31,0x00,0x00,
  0x04,0x00,0x00,0x00,0x01,0x00,0x00,0x00,0x10,0x00,0x00,0x00,
  0x10,0x00,0x00,0x00,0x10,0x00,0x00,0x00,0xca,0xed,0xff,0xff,
  0x00,0x00,0x00,0x01,0x18,0x00,0x00,0x00,0x28,0x00,0x00,0x00,
  0x44,0x00,0x00,0x00,0x19,0x00,0x00,0x00,0x00,0x00,0x00,0x09,
  0x68,0x00,0x00,0x00,0x04,0x00,0x00,0x00,0xff,0xff,0xff,0xff,
  0x10,0x00,0x00,0x00,0x10,0x00,0x00,0x00,0x10,0x00,0x00,0x00,
  0xb4,0xed,0xff,0xff,0x08,0x00,0x00,0x00,0x10,0x00,0x00,0x00,
  0x01,0x00,0x00,0x00,0x80,0xff,0xff,0xff,0xff,0xff,0xff,0xff,
  0x01,0x00,0x00,0x00,0x50,0x0e,0x5e,0x3e,0x2a,0x00,0x00,0x00,
  0x66,0x75,0x6e,0x63,0x74,0x69,0x6f,0x6e,0x61,0x6c,0x5f,0x31,
  0x5f,0x31,0x2f,0x6d,0x61,0x78,0x5f,0x70,0x6f,0x6f,0x6c,0x69,
  0x6e,0x67,0x32,0x64,0x5f,0x31,0x5f,0x32,0x2f,0x4d,0x61,0x78,
  0x50,0x6f,0x6f,0x6c,0x32,0x64,0x00,0x00,0x04,0x00,0x00,0x00,
  0x01,0x00,0x00,0x00,0x10,0x00,0x00,0x00,0x10,0x00,0x00,0x00,
  0x10,0x00,0x00,0x00,0x62,0xee,0xff,0xff,0x00,0x00,0x00,0x01,
  0x18,0x00,0x00,0x00,0x28,0x00,0x00,0x00,0x44,0x00,0x00,0x00,
  0x18,0x00,0x00,0x00,0x00,0x00,0x00,0x09,0xc8,0x00,0x00,0x00,
  0x04,0x00,0x00,0x00,0xff,0xff,0xff,0xff,0x20,0x00,0x00,0x00,
  0x20,0x00,0x00,0x00,0x10,0x00,0x00,0x00,0x4c,0xee,0xff,0xff,
  0x08,0x00,0x00,0x00,0x10,0x00,0x00,0x00,0x01,0x00,0x00,0x00,
  0x80,0xff,0xff,0xff,0xff,0xff,0xff,0xff,0x01,0x00,0x00,0x00,
  0x50,0x0e,0x5e,0x3e,0x88,0x00,0x00,0x00,0x66,0x75,0x6e,0x63,
  0x74,0x69,0x6f,0x6e,0x61,0x6c,0x5f,0x31,0x5f,0x31,0x2f,0x63,
  0x6f,0x6e,0x76,0x32,0x64,0x5f,0x31,0x5f,0x32,0x2f,0x52,0x65,
  0x6c,0x75,0x3b,0x66,0x75,0x6e,0x63,0x74,0x69,0x6f,0x6e,0x61,
  0x6c,0x5f,0x31,0x5f,0x31,0x2f,0x63,0x6f,0x6e,0x76,0x32,0x64,
  0x5f,0x31,0x5f,0x32,0x2f,0x42,0x69,0x61,0x73,0x41,0x64,0x64,
  0x3b,0x66,0x75,0x6e,0x63,0x74,0x69,0x6f,0x6e,0x61,0x6c,0x5f,
  0x31,0x5f,0x31,0x2f,0x63,0x6f,0x6e,0x76,0x32,0x64,0x5f,0x31,
  0x5f,0x32,0x2f,0x63,0x6f,0x6e,0x76,0x6f,0x6c,0x75,0x74,0x69,
  0x6f,0x6e,0x3b,0x66,0x75,0x6e,0x63,0x74,0x69,0x6f,0x6e,0x61,
  0x6c,0x5f,0x31,0x5f,0x31,0x2f,0x63,0x6f,0x6e,0x76,0x32,0x64,
  0x5f,0x31,0x5f,0x32,0x2f,0x53,0x71,0x75,0x65,0x65,0x7a,0x65,
  0x00,0x00,0x00,0x00,0x04,0x00,0x00,0x00,0x01,0x00,0x00,0x00,
  0x20,0x00,0x00,0x00,0x20,0x00,0x00,0x00,0x10,0x00,0x00,0x00,
  0x5a,0xef,0xff,0xff,0x00,0x00,0x00,0x01,0x18,0x00,0x00,0x00,
  0x28,0x00,0x00,0x00,0x48,0x00,0x00,0x00,0x17,0x00,0x00,0x00,
  0x00,0x00,0x00,0x09,0x78,0x00,0x00,0x00,0x04,0x00,0x00,0x00,
  0xff,0xff,0xff,0xff,0x20,0x00,0x00,0x00,0x20,0x00,0x00,0x00,
  0x08,0x00,0x00,0x00,0x44,0xef,0xff,0xff,0x08,0x00,0x00,0x00,
  0x14,0x00,0x00,0x00,0x01,0x00,0x00,0x00,0x83,0xff,0xff,0xff,
  0xff,0xff,0xff,0xff,0x00,0x00,0x00,0x00,0x01,0x00,0x00,0x00,
  0x36,0x9a,0x66,0x3f,0x34,0x00,0x00,0x00,0x66,0x75,0x6e,0x63,
  0x74,0x69,0x6f,0x6e,0x61,0x6c,0x5f,0x31,0x5f,0x31,0x2f,0x62,
  0x61,0x74,0x63,0x68,0x5f,0x6e,0x6f,0x72,0x6d,0x61,0x6c,0x69,
  0x7a,0x61,0x74,0x69,0x6f,0x6e,0x5f,0x31,0x2f,0x62,0x61,0x74,
  0x63,0x68,0x6e,0x6f,0x72,0x6d,0x2f,0x61,0x64,0x64,0x5f,0x31,
  0x00,0x00,0x00,0x00,0x04,0x00,0x00,0x00,0x01,0x00,0x00,0x00,
  0x20,0x00,0x00,0x00,0x20,0x00,0x00,0x00,0x08,0x00,0x00,0x00,
  0x02,0xf0,0xff,0xff,0x00,0x00,0x00,0x01,0x18,0x00,0x00,0x00,
  0x28,0x00,0x00,0x00,0x48,0x00,0x00,0x00,0x16,0x00,0x00,0x00,
  0x00,0x00,0x00,0x09,0x78,0x00,0x00,0x00,0x04,0x00,0x00,0x00,
  0xff,0xff,0xff,0xff,0x20,0x00,0x00,0x00,0x20,0x00,0x00,0x00,
  0x08,0x00,0x00,0x00,0xec,0xef,0xff,0xff,0x08,0x00,0x00,0x00,
  0x14,0x00,0x00,0x00,0x01,0x00,0x00,0x00,0x83,0xff,0xff,0xff,
  0xff,0xff,0xff,0xff,0x00,0x00,0x00,0x00,0x01,0x00,0x00,0x00,
  0x05,0xcb,0x66,0x3f,0x34,0x00,0x00,0x00,0x66,0x75,0x6e,0x63,
  0x74,0x69,0x6f,0x6e,0x61,0x6c,0x5f,0x31,0x5f,0x31,0x2f,0x62,
  0x61,0x74,0x63,0x68,0x5f,0x6e,0x6f,0x72,0x6d,0x61,0x6c,0x69,
  0x7a,0x61,0x74,0x69,0x6f,0x6e,0x5f,0x31,0x2f,0x62,0x61,0x74,
  0x63,0x68,0x6e,0x6f,0x72,0x6d,0x2f,0x6d,0x75,0x6c,0x5f,0x31,
  0x00,0x00,0x00,0x00,0x04,0x00,0x00,0x00,0x01,0x00,0x00,0x00,
  0x20,0x00,0x00,0x00,0x20,0x00,0x00,0x00,0x08,0x00,0x00,0x00,
  0xaa,0xf0,0xff,0xff,0x00,0x00,0x00,0x01,0x18,0x00,0x00,0x00,
  0x28,0x00,0x00,0x00,0x44,0x00,0x00,0x00,0x15,0x00,0x00,0x00,
  0x00,0x00,0x00,0x09,0x68,0x00,0x00,0x00,0x04,0x00,0x00,0x00,
  0xff,0xff,0xff,0xff,0x20,0x00,0x00,0x00,0x20,0x00,0x00,0x00,
  0x08,0x00,0x00,0x00,0x94,0xf0,0xff,0xff,0x08,0x00,0x00,0x00,
  0x10,0x00,0x00,0x00,0x01,0x00,0x00,0x00,0x80,0xff,0xff,0xff,
  0xff,0xff,0xff,0xff,0x01,0x00,0x00,0x00,0xa2,0x23,0xdd,0x3f,
  0x28,0x00,0x00,0x00,0x66,0x75,0x6e,0x63,0x74,0x69,0x6f,0x6e,
  0x61,0x6c,0x5f,0x31,0x5f,0x31,0x2f,0x6d,0x61,0x78,0x5f,0x70,
  0x6f,0x6f,0x6c,0x69,0x6e,0x67,0x32,0x64,0x5f,0x31,0x2f,0x4d,
  0x61,0x78,0x50,0x6f,0x6f,0x6c,0x32,0x64,0x00,0x00,0x00,0x00,
  0x04,0x00,0x00,0x00,0x01,0x00,0x00,0x00,0x20,0x00,0x00,0x00,
  0x20,0x00,0x00,0x00,0x08,0x00,0x00,0x00,0x42,0xf1,0xff,0xff,
  0x00,0x00,0x00,0x01,0x18,0x00,0x00,0x00,0x28,0x00,0x00,0x00,
  0x44,0x00,0x00,0x00,0x14,0x00,0x00,0x00,0x00,0x00,0x00,0x09,
  0xc0,0x00,0x00,0x00,0x04,0x00,0x00,0x00,0xff,0xff,0xff,0xff,
  0x40,0x00,0x00,0x00,0x40,0x00,0x00,0x00,0x08,0x00,0x00,0x00,
  0x2c,0xf1,0xff,0xff,0x08,0x00,0x00,0x00,0x10,0x00,0x00,0x00,
  0x01,0x00,0x00,0x00,0x80,0xff,0xff,0xff,0xff,0xff,0xff,0xff,
  0x01,0x00,0x00,0x00,0xa2,0x23,0xdd,0x3f,0x81,0x00,0x00,0x00,
  0x66,0x75,0x6e,0x63,0x74,0x69,0x6f,0x6e,0x61,0x6c,0x5f,0x31,
  0x5f,0x31,0x2f,0x63,0x6f,0x6e,0x76,0x32,0x64,0x5f,0x31,0x2f,
  0x52,0x65,0x6c,0x75,0x3b,0x66,0x75,0x6e,0x63,0x74,0x69,0x6f,
  0x6e,0x61,0x6c,0x5f,0x31,0x5f,0x31,0x2f,0x63,0x6f,0x6e,0x76,
  0x32,0x64,0x5f,0x31,0x2f,0x42,0x69,0x61,0x73,0x41,0x64,0x64,
  0x3b,0x66,0x75,0x6e,0x63,0x74,0x69,0x6f,0x6e,0x61,0x6c,0x5f,
  0x31,0x5f,0x31,0x2f,0x63,0x6f,0x6e,0x76,0x32,0x64,0x5f,0x31,
  0x2f,0x63,0x6f,0x6e,0x76,0x6f,0x6c,0x75,0x74,0x69,0x6f,0x6e,
  0x3b,0x66,0x75,0x6e,0x63,0x74,0x69,0x6f,0x6e,0x61,0x6c,0x5f,
  0x31,0x5f,0x31,0x2f,0x63,0x6f,0x6e,0x76,0x32,0x64,0x5f,0x31,
  0x2f,0x53,0x71,0x75,0x65,0x65,0x7a,0x65,0x31,0x00,0x00,0x00,
  0x04,0x00,0x00,0x00,0x01,0x00,0x00,0x00,0x40,0x00,0x00,0x00,
  0x40,0x00,0x00,0x00,0x08,0x00,0x00,0x00,0x32,0xf2,0xff,0xff,
  0x00,0x00,0x00,0x01,0x18,0x00,0x00,0x00,0x28,0x00,0x00,0x00,
  0x48,0x00,0x00,0x00,0x13,0x00,0x00,0x00,0x00,0x00,0x00,0x09,
  0x50,0x00,0x00,0x00,0x04,0x00,0x00,0x00,0xff,0xff,0xff,0xff,
  0x40,0x00,0x00,0x00,0x40,0x00,0x00,0x00,0x03,0x00,0x00,0x00,
  0x1c,0xf2,0xff,0xff,0x08,0x00,0x00,0x00,0x14,0x00,0x00,0x00,
  0x01,0x00,0x00,0x00,0x80,0xff,0xff,0xff,0xff,0xff,0xff,0xff,
  0x00,0x00,0x00,0x00,0x01,0x00,0x00,0x00,0x00,0x00,0x80,0x3f,
  0x0c,0x00,0x00,0x00,0x74,0x66,0x6c,0x2e,0x71,0x75,0x61,0x6e,
  0x74,0x69,0x7a,0x65,0x00,0x00,0x00,0x00,0x04,0x00,0x00,0x00,
  0x01,0x00,0x00,0x00,0x40,0x00,0x00,0x00,0x40,0x00,0x00,0x00,
  0x03,0x00,0x00,0x00,0x0a,0xf3,0xff,0xff,0x00,0x00,0x00,0x01,
  0x14,0x00,0x00,0x00,0x88,0x00,0x00,0x00,0x12,0x00,0x00,0x00,
  0x00,0x00,0x00,0x09,0x94,0x00,0x00,0x00,0x84,0xf2,0xff,0xff,
  0x08,0x00,0x00,0x00,0x4c,0x00,0x00,0x00,0x08,0x00,0x00,0x00,
  0x00,0x00,0x00,0x00,0x00,0x00,0x00,0x00,0x00,0x00,0x00,0x00,
  0x00,0x00,0x00,0x00,0x00,0x00,0x00,0x00,0x00,0x00,0x00,0x00,
  0x00,0x00,0x00,0x00,0x00,0x00,0x00,0x00,0x00,0x00,0x00,0x00,
  0x00,0x00,0x00,0x00,0x00,0x00,0x00,0x00,0x00,0x00,0x00,0x00,
  0x00,0x00,0x00,0x00,0x00,0x00,0x00,0x00,0x00,0x00,0x00,0x00,
  0x00,0x00,0x00,0x00,0x00,0x00,0x00,0x00,0x08,0x00,0x00,0x00,
  0xd3,0x37,0x45,0x3b,0x1e,0x5e,0x0b,0x3b,0xd9,0xe1,0x23,0x3b,
  0x12,0xf0,0x1a,0x3b,0x7c,0x8e,0x25,0x3b,0x1d,0xfa,0x16,0x3b,
  0x55,0x7a,0x13,0x3b,0xcb,0xb6,0x15,0x3b,0x13,0x00,0x00,0x00,
  0x74,0x66,0x6c,0x2e,0x70,0x73,0x65,0x75,0x64,0x6f,0x5f,0x71,
  0x63,0x6f,0x6e,0x73,0x74,0x31,0x35,0x00,0x04,0x00,0x00,0x00,
  0x08,0x00,0x00,0x00,0x03,0x00,0x00,0x00,0x03,0x00,0x00,0x00,
  0x03,0x00,0x00,0x00,0xca,0xf3,0xff,0xff,0x00,0x00,0x00,0x01,
  0x14,0x00,0x00,0x00,0x84,0x00,0x00,0x00,0x11,0x00,0x00,0x00,
  0x00,0x00,0x00,0x02,0x90,0x00,0x00,0x00,0x44,0xf3,0xff,0xff,
  0x08,0x00,0x00,0x00,0x48,0x00,0x00,0x00,0x08,0x00,0x00,0x00,
  0x00,0x00,0x00,0x00,0x00,0x00,0x00,0x00,0x00,0x00,0x00,0x00,
  0x00,0x00,0x00,0x00,0x00,0x00,0x00,0x00,0x00,0x00,0x00,0x00,
  0x00,0x00,0x00,0x00,0x00,0x00,0x00,0x00,0x00,0x00,0x00,0x00,
  0x00,0x00,0x00,0x00,0x00,0x00,0x00,0x00,0x00,0x00,0x00,0x00,
  0x00,0x00,0x00,0x00,0x00,0x00,0x00,0x00,0x00,0x00,0x00,0x00,
  0x00,0x00,0x00,0x00,0x08,0x00,0x00,0x00,0xd3,0x37,0x45,0x3b,
  0x1e,0x5e,0x0b,0x3b,0xd9,0xe1,0x23,0x3b,0x12,0xf0,0x1a,0x3b,
  0x7c,0x8e,0x25,0x3b,0x1d,0xfa,0x16,0x3b,0x55,0x7a,0x13,0x3b,
  0xcb,0xb6,0x15,0x3b,0x13,0x00,0x00,0x00,0x74,0x66,0x6c,0x2e,
  0x70,0x73,0x65,0x75,0x64,0x6f,0x5f,0x71,0x63,0x6f,0x6e,0x73,
  0x74,0x31,0x34,0x00,0x01,0x00,0x00,0x00,0x08,0x00,0x00,0x00,
  0x7a,0xf4,0xff,0xff,0x00,0x00,0x00,0x01,0x14,0x00,0x00,0x00,
  0x34,0x00,0x00,0x00,0x10,0x00,0x00,0x00,0x00,0x00,0x00,0x09,
  0x40,0x00,0x00,0x00,0xf4,0xf3,0xff,0xff,0x08,0x00,0x00,0x00,
  0x14,0x00,0x00,0x00,0x01,0x00,0x00,0x00,0x80,0xff,0xff,0xff,
  0xff,0xff,0xff,0xff,0x00,0x00,0x00,0x00,0x01,0x00,0x00,0x00,
  0x5e,0x7e,0x9c,0x3d,0x13,0x00,0x00,0x00,0x74,0x66,0x6c,0x2e,
  0x70,0x73,0x65,0x75,0x64,0x6f,0x5f,0x71,0x63,0x6f,0x6e,0x73,
  0x74,0x31,0x33,0x00,0x01,0x00,0x00,0x00,0x08,0x00,0x00,0x00,
  0xda,0xf4,0xff,0xff,0x00,0x00,0x00,0x01,0x14,0x00,0x00,0x00,
  0x34,0x00,0x00,0x00,0x0f,0x00,0x00,0x00,0x00,0x00,0x00,0x09,
  0x40,0x00,0x00,0x00,0x54,0xf4,0xff,0xff,0x08,0x00,0x00,0x00,
  0x14,0x00,0x00,0x00,0x01,0x00,0x00,0x00,0x7f,0x00,0x00,0x00,
  0x00,0x00,0x00,0x00,0x00,0x00,0x00,0x00,0x01,0x00,0x00,0x00,
  0x64,0x6d,0x37,0x3c,0x13,0x00,0x00,0x00,0x74,0x66,0x6c,0x2e,
  0x70,0x73,0x65,0x75,0x64,0x6f,0x5f,0x71,0x63,0x6f,0x6e,0x73,
  0x74,0x31,0x32,0x00,0x01,0x00,0x00,0x00,0x08,0x00,0x00,0x00,
  0x3a,0xf5,0xff,0xff,0x00,0x00,0x00,0x01,0x14,0x00,0x00,0x00,
  0xe8,0x00,0x00,0x00,0x0e,0x00,0x00,0x00,0x00,0x00,0x00,0x09,
  0xf4,0x00,0x00,0x00,0xb4,0xf4,0xff,0xff,0x08,0x00,0x00,0x00,
  0x8c,0x00,0x00,0x00,0x10,0x00,0x00,0x00,0x00,0x00,0x00,0x00,
  0x00,0x00,0x00,0x00,0x00,0x00,0x00,0x00,0x00,0x00,0x00,0x00,
  0x00,0x00,0x00,0x00,0x00,0x00,0x00,0x00,0x00,0x00,0x00,0x00,
  0x00,0x00,0x00,0x00,0x00,0x00,0x00,0x00,0x00,0x00,0x00,0x00,
  0x00,0x00,0x00,0x00,0x00,0x00,0x00,0x00,0x00,0x00,0x00,0x00,
  0x00,0x00,0x00,0x00,0x00,0x00,0x00,0x00,0x00,0x00,0x00,0x00,
  0x00,0x00,0x00,0x00,0x00,0x00,0x00,0x00,0x00,0x00,0x00,0x00,
  0x00,0x00,0x00,0x00,0x00,0x00,0x00,0x00,0x00,0x00,0x00,0x00,
  0x00,0x00,0x00,0x00,0x00,0x00,0x00,0x00,0x00,0x00,0x00,0x00,
  0x00,0x00,0x00,0x00,0x00,0x00,0x00,0x00,0x00,0x00,0x00,0x00,
  0x00,0x00,0x00,0x00,0x00,0x00,0x00,0x00,0x00,0x00,0x00,0x00,
  0x00,0x00,0x00,0x00,0x00,0x00,0x00,0x00,0x10,0x00,0x00,0x00,
  0x00,0xbd,0x1c,0x3b,0xa2,0xbd,0x17,0x3b,0xad,0x70,0x0d,0x3b,
  0x3f,0x07,0x04,0x3b,0x22,0x81,0x24,0x3b,0x90,0x8f,0x12,0x3b,
  0x58,0x96,0x0d,0x3b,0x95,0xdb,0x1f,0x3b,0x10,0x72,0x35,0x3b,
  0x1a,0x9b,0x18,0x3b,0x6c,0xd7,0x24,0x3b,0xca,0x0b,0x55,0x3b,
  0xa3,0x18,0x46,0x3b,0x8f,0xf4,0x2a,0x3b,0xc1,0x4d,0x1a,0x3b,
  0xa2,0x60,0x04,0x3b,0x13,0x00,0x00,0x00,0x74,0x66,0x6c,0x2e,
  0x70,0x73,0x65,0x75,0x64,0x6f,0x5f,0x71,0x63,0x6f,0x6e,0x73,
  0x74,0x31,0x31,0x00,0x04,0x00,0x00,0x00,0x10,0x00,0x00,0x00,
  0x03,0x00,0x00,0x00,0x03,0x00,0x00,0x00,0x08,0x00,0x00,0x00,
  0x5a,0xf6,0xff,0xff,0x00,0x00,0x00,0x01,0x14,0x00,0x00,0x00,
  0xe4,0x00,0x00,0x00,0x0d,0x00,0x00,0x00,0x00,0x00,0x00,0x02,
  0xf0,0x00,0x00,0x00,0xd4,0xf5,0xff,0xff,0x08,0x00,0x00,0x00,
  0x88,0x00,0x00,0x00,0x10,0x00,0x00,0x00,0x00,0x00,0x00,0x00,
  0x00,0x00,0x00,0x00,0x00,0x00,0x00,0x00,0x00,0x00,0x00,0x00,
  0x00,0x00,0x00,0x00,0x00,0x00,0x00,0x00,0x00,0x00,0x00,0x00,
  0x00,0x00,0x00,0x00,0x00,0x00,0x00,0x00,0x00,0x00,0x00,0x00,
  0x00,0x00,0x00,0x00,0x00,0x00,0x00,0x00,0x00,0x00,0x00,0x00,
  0x00,0x00,0x00,0x00,0x00,0x00,0x00,0x00,0x00,0x00,0x00,0x00,
  0x00,0x00,0x00,0x00,0x00,0x00,0x00,0x00,0x00,0x00,0x00,0x00,
  0x00,0x00,0x00,0x00,0x00,0x00,0x00,0x00,0x00,0x00,0x00,0x00,
  0x00,0x00,0x00,0x00,0x00,0x00,0x00,0x00,0x00,0x00,0x00,0x00,
  0x00,0x00,0x00,0x00,0x00,0x00,0x00,0x00,0x00,0x00,0x00,0x00,
  0x00,0x00,0x00,0x00,0x00,0x00,0x00,0x00,0x00,0x00,0x00,0x00,
  0x00,0x00,0x00,0x00,0x10,0x00,0x00,0x00,0x39,0x30,0x0d,0x3b,
  0xc8,0xaf,0x08,0x3b,0xde,0xd0,0xfe,0x3a,0x16,0xdc,0xed,0x3a,
  0x1d,0x2f,0x14,0x3b,0x45,0x05,0x04,0x3b,0xbb,0x14,0xff,0x3a,
  0x94,0xff,0x0f,0x3b,0xc7,0x71,0x23,0x3b,0x47,0x77,0x09,0x3b,
  0xd7,0x7c,0x14,0x3b,0xee,0xe8,0x3f,0x3b,0x77,0x71,0x32,0x3b,
  0xb4,0xfe,0x19,0x3b,0xcf,0xfe,0x0a,0x3b,0x1f,0x7d,0xee,0x3a,
  0x13,0x00,0x00,0x00,0x74,0x66,0x6c,0x2e,0x70,0x73,0x65,0x75,
  0x64,0x6f,0x5f,0x71,0x63,0x6f,0x6e,0x73,0x74,0x31,0x30,0x00,
  0x01,0x00,0x00,0x00,0x10,0x00,0x00,0x00,0x6a,0xf7,0xff,0xff,
  0x00,0x00,0x00,0x01,0x14,0x00,0x00,0x00,0x34,0x00,0x00,0x00,
  0x0c,0x00,0x00,0x00,0x00,0x00,0x00,0x09,0x40,0x00,0x00,0x00,
  0xe4,0xf6,0xff,0xff,0x08,0x00,0x00,0x00,0x14,0x00,0x00,0x00,
  0x01,0x00,0x00,0x00,0x80,0xff,0xff,0xff,0xff,0xff,0xff,0xff,
  0x00,0x00,0x00,0x00,0x01,0x00,0x00,0x00,0x55,0xa5,0x15,0x3c,
  0x12,0x00,0x00,0x00,0x74,0x66,0x6c,0x2e,0x70,0x73,0x65,0x75,
  0x64,0x6f,0x5f,0x71,0x63,0x6f,0x6e,0x73,0x74,0x39,0x00,0x00,
  0x01,0x00,0x00,0x00,0x10,0x00,0x00,0x00,0xca,0xf7,0xff,0xff,
  0x00,0x00,0x00,0x01,0x14,0x00,0x00,0x00,0x34,0x00,0x00,0x00,
  0x0b,0x00,0x00,0x00,0x00,0x00,0x00,0x09,0x40,0x00,0x00,0x00,
  0x44,0xf7,0xff,0xff,0x08,0x00,0x00,0x00,0x14,0x00,0x00,0x00,
  0x01,0x00,0x00,0x00,0x7d,0x00,0x00,0x00,0x00,0x00,0x00,0x00,
  0x00,0x00,0x00,0x00,0x01,0x00,0x00,0x00,0xaa,0x82,0xa0,0x3b,
  0x12,0x00,0x00,0x00,0x74,0x66,0x6c,0x2e,0x70,0x73,0x65,0x75,
  0x64,0x6f,0x5f,0x71,0x63,0x6f,0x6e,0x73,0x74,0x38,0x00,0x00,
  0x01,0x00,0x00,0x00,0x10,0x00,0x00,0x00,0x2a,0xf8,0xff,0xff,
  0x00,0x00,0x00,0x01,0x14,0x00,0x00,0x00,0xa8,0x01,0x00,0x00,
  0x0a,0x00,0x00,0x00,0x00,0x00,0x00,0x09,0xb4,0x01,0x00,0x00,
  0xa4,0xf7,0xff,0xff,0x08,0x00,0x00,0x00,0x0c,0x01,0x00,0x00,
  0x20,0x00,0x00,0x00,0x00,0x00,0x00,0x00,0x00,0x00,0x00,0x00,
  0x00,0x00,0x00,0x00,0x00,0x00,0x00,0x00,0x00,0x00,0x00,0x00,
  0x00,0x00,0x00,0x00,0x00,0x00,0x00,0x00,0x00,0x00,0x00,0x00,
  0x00,0x00,0x00,0x00,0x00,0x00,0x00,0x00,0x00,0x00,0x00,0x00,
  0x00,0x00,0x00,0x00,0x00,0x00,0x00,0x00,0x00,0x00,0x00,0x00,
  0x00,0x00,0x00,0x00,0x00,0x00,0x00,0x00,0x00,0x00,0x00,0x00,
  0x00,0x00,0x00,0x00,0x00,0x00,0x00,0x00,0x00,0x00,0x00,0x00,
  0x00,0x00,0x00,0x00,0x00,0x00,0x00,0x00,0x00,0x00,0x00,0x00,
  0x00,0x00,0x00,0x00,0x00,0x00,0x00,0x00,0x00,0x00,0x00,0x00,
  0x00,0x00,0x00,0x00,0x00,0x00,0x00,0x00,0x00,0x00,0x00,0x00,
  0x00,0x00,0x00,0x00,0x00,0x00,0x00,0x00,0x00,0x00,0x00,0x00,
  0x00,0x00,0x00,0x00,0x00,0x00,0x00,0x00,0x00,0x00,0x00,0x00,
  0x00,0x00,0x00,0x00,0x00,0x00,0x00,0x00,0x00,0x00,0x00,0x00,
  0x00,0x00,0x00,0x00,0x00,0x00,0x00,0x00,0x00,0x00,0x00,0x00,
  0x00,0x00,0x00,0x00,0x00,0x00,0x00,0x00,0x00,0x00,0x00,0x00,
  0x00,0x00,0x00,0x00,0x00,0x00,0x00,0x00,0x00,0x00,0x00,0x00,
  0x00,0x00,0x00,0x00,0x00,0x00,0x00,0x00,0x00,0x00,0x00,0x00,
  0x00,0x00,0x00,0x00,0x00,0x00,0x00,0x00,0x00,0x00,0x00,0x00,
  0x00,0x00,0x00,0x00,0x00,0x00,0x00,0x00,0x00,0x00,0x00,0x00,
  0x00,0x00,0x00,0x00,0x00,0x00,0x00,0x00,0x00,0x00,0x00,0x00,
  0x00,0x00,0x00,0x00,0x00,0x00,0x00,0x00,0x00,0x00,0x00,0x00,
  0x00,0x00,0x00,0x00,0x00,0x00,0x00,0x00,0x00,0x00,0x00,0x00,
  0x20,0x00,0x00,0x00,0x95,0xa4,0x2e,0x3b,0xa7,0x4b,0x11,0x3b,
  0xdd,0x46,0xf6,0x3a,0x08,0x76,0x05,0x3b,0xb6,0x16,0x11,0x3b,
  0x1a,0x44,0xd6,0x3a,0x07,0xd9,0x06,0x3b,0xa4,0x36,0xf6,0x3a,
  0xd3,0x97,0x15,0x3b,0x6f,0xb1,0x0f,0x3b,0xcf,0x30,0x0d,0x3b,
  0xcc,0x45,0x12,0x3b,0x02,0x16,0x2a,0x3b,0x92,0x79,0x18,0x3b,
  0x16,0x83,0x2a,0x3b,0xdf,0x7a,0x1a,0x3b,0x18,0xaf,0x0c,0x3b,
  0xf6,0x5b,0x14,0x3b,0x15,0xeb,0x22,0x3b,0x0e,0x5d,0x20,0x3b,
  0x4d,0xd6,0x10,0x3b,0xf1,0x1f,0x25,0x3b,0x44,0xe9,0xed,0x3a,
  0xe0,0x57,0x15,0x3b,0xce,0xe7,0x22,0x3b,0x29,0xc0,0x21,0x3b,
  0x3e,0xff,0x0a,0x3b,0x92,0xe0,0x31,0x3b,0xdb,0xfb,0x1a,0x3b,
  0x9b,0xef,0x1e,0x3b,0x21,0xc8,0x14,0x3b,0xb3,0x96,0x1a,0x3b,
  0x12,0x00,0x00,0x00,0x74,0x66,0x6c,0x2e,0x70,0x73,0x65,0x75,
  0x64,0x6f,0x5f,0x71,0x63,0x6f,0x6e,0x73,0x74,0x37,0x00,0x00,
  0x04,0x00,0x00,0x00,0x20,0x00,0x00,0x00,0x03,0x00,0x00,0x00,
  0x03,0x00,0x00,0x00,0x10,0x00,0x00,0x00,0x0a,0xfa,0xff,0xff,
  0x00,0x00,0x00,0x01,0x14,0x00,0x00,0x00,0xa4,0x01,0x00,0x00,
  0x09,0x00,0x00,0x00,0x00,0x00,0x00,0x02,0xb0,0x01,0x00,0x00,
  0x84,0xf9,0xff,0xff,0x08,0x00,0x00,0x00,0x08,0x01,0x00,0x00,
  0x20,0x00,0x00,0x00,0x00,0x00,0x00,0x00,0x00,0x00,0x00,0x00,
  0x00,0x00,0x00,0x00,0x00,0x00,0x00,0x00,0x00,0x00,0x00,0x00,
  0x00,0x00,0x00,0x00,0x00,0x00,0x00,0x00,0x00,0x00,0x00,0x00,
  0x00,0x00,0x00,0x00,0x00,0x00,0x00,0x00,0x00,0x00,0x00,0x00,
  0x00,0x00,0x00,0x00,0x00,0x00,0x00,0x00,0x00,0x00,0x00,0x00,
  0x00,0x00,0x00,0x00,0x00,0x00,0x00,0x00,0x00,0x00,0x00,0x00,
  0x00,0x00,0x00,0x00,0x00,0x00,0x00,0x00,0x00,0x00,0x00,0x00,
  0x00,0x00,0x00,0x00,0x00,0x00,0x00,0x00,0x00,0x00,0x00,0x00,
  0x00,0x00,0x00,0x00,0x00,0x00,0x00,0x00,0x00,0x00,0x00,0x00,
  0x00,0x00,0x00,0x00,0x00,0x00,0x00,0x00,0x00,0x00,0x00,0x00,
  0x00,0x00,0x00,0x00,0x00,0x00,0x00,0x00,0x00,0x00,0x00,0x00,
  0x00,0x00,0x00,0x00,0x00,0x00,0x00,0x00,0x00,0x00,0x00,0x00,
  0x00,0x00,0x00,0x00,0x00,0x00,0x00,0x00,0x00,0x00,0x00,0x00,
  0x00,0x00,0x00,0x00,0x00,0x00,0x00,0x00,0x00,0x00,0x00,0x00,
  0x00,0x00,0x00,0x00,0x00,0x00,0x00,0x00,0x00,0x00,0x00,0x00,
  0x00,0x00,0x00,0x00,0x00,0x00,0x00,0x00,0x00,0x00,0x00,0x00,
  0x00,0x00,0x00,0x00,0x00,0x00,0x00,0x00,0x00,0x00,0x00,0x00,
  0x00,0x00,0x00,0x00,0x00,0x00,0x00,0x00,0x00,0x00,0x00,0x00,
  0x00,0x00,0x00,0x00,0x00,0x00,0x00,0x00,0x00,0x00,0x00,0x00,
  0x00,0x00,0x00,0x00,0x00,0x00,0x00,0x00,0x00,0x00,0x00,0x00,
  0x00,0x00,0x00,0x00,0x00,0x00,0x00,0x00,0x00,0x00,0x00,0x00,
  0x00,0x00,0x00,0x00,0x00,0x00,0x00,0x00,0x20,0x00,0x00,0x00,
  0x90,0x53,0x0c,0x3a,0xc7,0x7d,0xe9,0x39,0x76,0xe2,0xc5,0x39,
  0x25,0x79,0xd6,0x39,0xb3,0x28,0xe9,0x39,0xee,0x29,0xac,0x39,
  0xa1,0xb3,0xd8,0x39,0x6d,0xd5,0xc5,0x39,0xc3,0x65,0xf0,0x39,
  0x8d,0xea,0xe6,0x39,0x0f,0xe5,0xe2,0x39,0xc3,0x0f,0xeb,0x39,
  0x37,0xaa,0x08,0x3a,0x54,0x07,0xf5,0x39,0xdc,0x01,0x09,0x3a,
  0x35,0x40,0xf8,0x39,0x9c,0x14,0xe2,0x39,0x2b,0x6a,0xee,0x39,
  0xd8,0xe7,0x02,0x3a,0x54,0xda,0x00,0x3a,0x31,0xc1,0xe8,0x39,
  0xb6,0xad,0x04,0x3a,0xae,0x29,0xbf,0x39,0xff,0xfe,0xef,0x39,
  0x36,0xe5,0x02,0x3a,0xa9,0xf7,0x01,0x3a,0x9e,0x5e,0xdf,0x39,
  0xdb,0xec,0x0e,0x3a,0x7d,0x0f,0xf9,0x39,0x61,0x69,0xff,0x39,
  0xff,0x17,0xef,0x39,0xee,0x6c,0xf8,0x39,0x12,0x00,0x00,0x00,
  0x74,0x66,0x6c,0x2e,0x70,0x73,0x65,0x75,0x64,0x6f,0x5f,0x71,
  0x63,0x6f,0x6e,0x73,0x74,0x36,0x00,0x00,0x01,0x00,0x00,0x00,
  0x20,0x00,0x00,0x00,0xda,0xfb,0xff,0xff,0x00,0x00,0x00,0x01,
  0x14,0x00,0x00,0x00,0x34,0x00,0x00,0x00,0x08,0x00,0x00,0x00,
  0x00,0x00,0x00,0x09,0x40,0x00,0x00,0x00,0x54,0xfb,0xff,0xff,
  0x08,0x00,0x00,0x00,0x14,0x00,0x00,0x00,0x01,0x00,0x00,0x00,
  0x80,0xff,0xff,0xff,0xff,0xff,0xff,0xff,0x00,0x00,0x00,0x00,
  0x01,0x00,0x00,0x00,0x55,0xff,0xe2,0x3c,0x12,0x00,0x00,0x00,
  0x74,0x66,0x6c,0x2e,0x70,0x73,0x65,0x75,0x64,0x6f,0x5f,0x71,
  0x63,0x6f,0x6e,0x73,0x74,0x35,0x00,0x00,0x01,0x00,0x00,0x00,
  0x20,0x00,0x00,0x00,0x3a,0xfc,0xff,0xff,0x00,0x00,0x00,0x01,
  0x14,0x00,0x00,0x00,0x34,0x00,0x00,0x00,0x07,0x00,0x00,0x00,
  0x00,0x00,0x00,0x09,0x40,0x00,0x00,0x00,0xb4,0xfb,0xff,0xff,
  0x08,0x00,0x00,0x00,0x14,0x00,0x00,0x00,0x01,0x00,0x00,0x00,
  0x7f,0x00,0x00,0x00,0x00,0x00,0x00,0x00,0x00,0x00,0x00,0x00,
  0x01,0x00,0x00,0x00,0xb6,0x31,0x00,0x3c,0x12,0x00,0x00,0x00,
  0x74,0x66,0x6c,0x2e,0x70,0x73,0x65,0x75,0x64,0x6f,0x5f,0x71,
  0x63,0x6f,0x6e,0x73,0x74,0x34,0x00,0x00,0x01,0x00,0x00,0x00,
  0x20,0x00,0x00,0x00,0x9a,0xfc,0xff,0xff,0x00,0x00,0x00,0x01,
  0x14,0x00,0x00,0x00,0xe8,0x00,0x00,0x00,0x06,0x00,0x00,0x00,
  0x00,0x00,0x00,0x09,0xf4,0x00,0x00,0x00,0x14,0xfc,0xff,0xff,
  0x08,0x00,0x00,0x00,0x8c,0x00,0x00,0x00,0x10,0x00,0x00,0x00,
  0x00,0x00,0x00,0x00,0x00,0x00,0x00,0x00,0x00,0x00,0x00,0x00,
  0x00,0x00,0x00,0x00,0x00,0x00,0x00,0x00,0x00,0x00,0x00,0x00,
  0x00,0x00,0x00,0x00,0x00,0x00,0x00,0x00,0x00,0x00,0x00,0x00,
  0x00,0x00,0x00,0x00,0x00,0x00,0x00,0x00,0x00,0x00,0x00,0x00,
  0x00,0x00,0x00,0x00,0x00,0x00,0x00,0x00,0x00,0x00,0x00,0x00,
  0x00,0x00,0x00,0x00,0x00,0x00,0x00,0x00,0x00,0x00,0x00,0x00,
  0x00,0x00,0x00,0x00,0x00,0x00,0x00,0x00,0x00,0x00,0x00,0x00,
  0x00,0x00,0x00,0x00,0x00,0x00,0x00,0x00,0x00,0x00,0x00,0x00,
  0x00,0x00,0x00,0x00,0x00,0x00,0x00,0x00,0x00,0x00,0x00,0x00,
  0x00,0x00,0x00,0x00,0x00,0x00,0x00,0x00,0x00,0x00,0x00,0x00,
  0x00,0x00,0x00,0x00,0x00,0x00,0x00,0x00,0x00,0x00,0x00,0x00,
  0x10,0x00,0x00,0x00,0xd3,0x12,0xb5,0x3b,0x4a,0xdd,0x8e,0x3b,
  0x4e,0x7b,0xc3,0x3b,0x34,0x88,0xd4,0x3b,0xe2,0xa1,0xe4,0x3b,
  0x02,0x6a,0xbd,0x3b,0x0b,0x63,0xa9,0x3b,0x81,0x09,0xa5,0x3b,
  0xd6,0x67,0xd5,0x3b,0xd7,0xc6,0xa0,0x3b,0x74,0xb4,0x97,0x3b,
  0xb6,0x20,0x74,0x3b,0x27,0x87,0xd7,0x3b,0xfa,0xde,0x8b,0x3b,
  0x59,0xd8,0x92,0x3b,0x74,0x27,0xc7,0x3b,0x12,0x00,0x00,0x00,
  0x74,0x66,0x6c,0x2e,0x70,0x73,0x65,0x75,0x64,0x6f,0x5f,0x71,
  0x63,0x6f,0x6e,0x73,0x74,0x33,0x00,0x00,0x02,0x00,0x00,0x00,
  0x10,0x00,0x00,0x00,0x20,0x00,0x00,0x00,0xb2,0xfd,0xff,0xff,
  0x00,0x00,0x00,0x01,0x14,0x00,0x00,0x00,0xe4,0x00,0x00,0x00,
  0x05,0x00,0x00,0x00,0x00,0x00,0x00,0x02,0xf0,0x00,0x00,0x00,
  0x2c,0xfd,0xff,0xff,0x08,0x00,0x00,0x00,0x88,0x00,0x00,0x00,
  0x10,0x00,0x00,0x00,0x00,0x00,0x00,0x00,0x00,0x00,0x00,0x00,
  0x00,0x00,0x00,0x00,0x00,0x00,0x00,0x00,0x00,0x00,0x00,0x00,
  0x00,0x00,0x00,0x00,0x00,0x00,0x00,0x00,0x00,0x00,0x00,0x00,
  0x00,0x00,0x00,0x00,0x00,0x00,0x00,0x00,0x00,0x00,0x00,0x00,
  0x00,0x00,0x00,0x00,0x00,0x00,0x00,0x00,0x00,0x00,0x00,0x00,
  0x00,0x00,0x00,0x00,0x00,0x00,0x00,0x00,0x00,0x00,0x00,0x00,
  0x00,0x00,0x00,0x00,0x00,0x00,0x00,0x00,0x00,0x00,0x00,0x00,
  0x00,0x00,0x00,0x00,0x00,0x00,0x00,0x00,0x00,0x00,0x00,0x00,
  0x00,0x00,0x00,0x00,0x00,0x00,0x00,0x00,0x00,0x00,0x00,0x00,
  0x00,0x00,0x00,0x00,0x00,0x00,0x00,0x00,0x00,0x00,0x00,0x00,
  0x00,0x00,0x00,0x00,0x00,0x00,0x00,0x00,0x00,0x00,0x00,0x00,
  0x10,0x00,0x00,0x00,0x9a,0xc7,0x10,0x39,0x4c,0x75,0xe4,0x38,
  0xc6,0x4c,0x1c,0x39,0xc9,0xee,0x29,0x39,0x54,0xce,0x36,0x39,
  0xd1,0x72,0x17,0x39,0x7c,0x6f,0x07,0x39,0x24,0xf5,0x03,0x39,
  0x98,0xa1,0x2a,0x39,0x16,0x8d,0x00,0x39,0x62,0x98,0xf2,0x38,
  0x0f,0x32,0xc3,0x38,0x03,0x54,0x2c,0x39,0xde,0xab,0xdf,0x38,
  0xe6,0xd2,0xea,0x38,0x7b,0x3c,0x1f,0x39,0x12,0x00,0x00,0x00,
  0x74,0x66,0x6c,0x2e,0x70,0x73,0x65,0x75,0x64,0x6f,0x5f,0x71,
  0x63,0x6f,0x6e,0x73,0x74,0x32,0x00,0x00,0x01,0x00,0x00,0x00,
  0x10,0x00,0x00,0x00,0xc2,0xfe,0xff,0xff,0x00,0x00,0x00,0x01,
  0x14,0x00,0x00,0x00,0x70,0x00,0x00,0x00,0x04,0x00,0x00,0x00,
  0x00,0x00,0x00,0x09,0x7c,0x00,0x00,0x00,0x3c,0xfe,0xff,0xff,
  0x08,0x00,0x00,0x00,0x3c,0x00,0x00,0x00,0x06,0x00,0x00,0x00,
  0x00,0x00,0x00,0x00,0x00,0x00,0x00,0x00,0x00,0x00,0x00,0x00,
  0x00,0x00,0x00,0x00,0x00,0x00,0x00,0x00,0x00,0x00,0x00,0x00,
  0x00,0x00,0x00,0x00,0x00,0x00,0x00,0x00,0x00,0x00,0x00,0x00,
  0x00,0x00,0x00,0x00,0x00,0x00,0x00,0x00,0x00,0x00,0x00,0x00,
  0x00,0x00,0x00,0x00,0x06,0x00,0x00,0x00,0x62,0xd0,0x26,0x3c,
  0x0e,0xc4,0x3f,0x3c,0x96,0xb9,0x02,0x3c,0x91,0x47,0x12,0x3c,
  0xc3,0xbc,0xab,0x3b,0x3a,0x1f,0x0e,0x3c,0x12,0x00,0x00,0x00,
  0x74,0x66,0x6c,0x2e,0x70,0x73,0x65,0x75,0x64,0x6f,0x5f,0x71,
  0x63,0x6f,0x6e,0x73,0x74,0x31,0x00,0x00,0x02,0x00,0x00,0x00,
  0x06,0x00,0x00,0x00,0x10,0x00,0x00,0x00,0x62,0xff,0xff,0xff,
  0x00,0x00,0x00,0x01,0x14,0x00,0x00,0x00,0x70,0x00,0x00,0x00,
  0x03,0x00,0x00,0x00,0x00,0x00,0x00,0x02,0x7c,0x00,0x00,0x00,
  0xdc,0xfe,0xff,0xff,0x08,0x00,0x00,0x00,0x3c,0x00,0x00,0x00,
  0x06,0x00,0x00,0x00,0x00,0x00,0x00,0x00,0x00,0x00,0x00,0x00,
  0x00,0x00,0x00,0x00,0x00,0x00,0x00,0x00,0x00,0x00,0x00,0x00,
  0x00,0x00,0x00,0x00,0x00,0x00,0x00,0x00,0x00,0x00,0x00,0x00,
  0x00,0x00,0x00,0x00,0x00,0x00,0x00,0x00,0x00,0x00,0x00,0x00,
  0x00,0x00,0x00,0x00,0x00,0x00,0x00,0x00,0x06,0x00,0x00,0x00,
  0x58,0x26,0x80,0x39,0x7a,0x51,0x93,0x39,0xd6,0xd9,0x48,0x39,
  0xe9,0xbf,0x60,0x39,0x97,0xee,0x03,0x39,0x9d,0x5c,0x5a,0x39,
  0x11,0x00,0x00,0x00,0x74,0x66,0x6c,0x2e,0x70,0x73,0x65,0x75,
  0x64,0x6f,0x5f,0x71,0x63,0x6f,0x6e,0x73,0x74,0x00,0x00,0x00,
  0x01,0x00,0x00,0x00,0x06,0x00,0x00,0x00,0x00,0x00,0x16,0x00,
  0x1c,0x00,0x18,0x00,0x17,0x00,0x10,0x00,0x0c,0x00,0x08,0x00,
  0x00,0x00,0x00,0x00,0x00,0x00,0x07,0x00,0x16,0x00,0x00,0x00,
  0x00,0x00,0x00,0x01,0x18,0x00,0x00,0x00,0x18,0x00,0x00,0x00,
  0x02,0x00,0x00,0x00,0x00,0x00,0x00,0x02,0x20,0x00,0x00,0x00,
  0x04,0x00,0x04,0x00,0x04,0x00,0x00,0x00,0x0e,0x00,0x00,0x00,
  0x61,0x72,0x69,0x74,0x68,0x2e,0x63,0x6f,0x6e,0x73,0x74,0x61,
  0x6e,0x74,0x00,0x00,0x01,0x00,0x00,0x00,0x02,0x00,0x00,0x00,
  0x00,0x00,0x16,0x00,0x20,0x00,0x1c,0x00,0x1b,0x00,0x14,0x00,
  0x10,0x00,0x0c,0x00,0x00,0x00,0x00,0x00,0x08,0x00,0x07,0x00,
  0x16,0x00,0x00,0x00,0x00,0x00,0x00,0x01,0x18,0x00,0x00,0x00,
  0x34,0x00,0x00,0x00,0x54,0x00,0x00,0x00,0x01,0x00,0x00,0x00,
  0x00,0x00,0x00,0x03,0x6c,0x00,0x00,0x00,0x04,0x00,0x00,0x00,
  0xff,0xff,0xff,0xff,0x40,0x00,0x00,0x00,0x40,0x00,0x00,0x00,
  0x03,0x00,0x00,0x00,0x0c,0x00,0x0c,0x00,0x00,0x00,0x00,0x00,
  0x08,0x00,0x04,0x00,0x0c,0x00,0x00,0x00,0x08,0x00,0x00,0x00,
  0x14,0x00,0x00,0x00,0x01,0x00,0x00,0x00,0x00,0x00,0x00,0x00,
  0x00,0x00,0x00,0x00,0x00,0x00,0x00,0x00,0x01,0x00,0x00,0x00,
  0x00,0x00,0x80,0x3f,0x1f,0x00,0x00,0x00,0x73,0x65,0x72,0x76,
  0x69,0x6e,0x67,0x5f,0x64,0x65,0x66,0x61,0x75,0x6c,0x74,0x5f,
  0x69,0x6e,0x70,0x75,0x74,0x5f,0x6c,0x61,0x79,0x65,0x72,0x5f,
  0x31,0x3a,0x30,0x00,0x04,0x00,0x00,0x00,0x01,0x00,0x00,0x00,
  0x40,0x00,0x00,0x00,0x40,0x00,0x00,0x00,0x03,0x00,0x00,0x00,
  0x08,0x00,0x00,0x00,0xb4,0x00,0x00,0x00,0x94,0x00,0x00,0x00,
  0x74,0x00,0x00,0x00,0x60,0x00,0x00,0x00,0x54,0x00,0x00,0x00,
  0x38,0x00,0x00,0x00,0x18,0x00,0x00,0x00,0x04,0x00,0x00,0x00,
  0x94,0xff,0xff,0xff,0x19,0x00,0x00,0x00,0x02,0x00,0x00,0x00,
  0x00,0x00,0x00,0x19,0xa4,0xff,0xff,0xff,0x09,0x00,0x00,0x00,
  0x04,0x00,0x00,0x00,0x00,0x00,0x00,0x09,0x0c,0x00,0x0e,0x00,
  0x0d,0x00,0x00,0x00,0x08,0x00,0x04,0x00,0x0c,0x00,0x00,0x00,
  0x28,0x00,0x00,0x00,0x02,0x00,0x00,0x00,0x00,0x28,0x0a,0x00,
  0x08,0x00,0x00,0x00,0x00,0x00,0x04,0x00,0x0a,0x00,0x00,0x00,
  0x02,0x00,0x00,0x00,0xe0,0xff,0xff,0xff,0x12,0x00,0x00,0x00,
  0x02,0x00,0x00,0x00,0x00,0x00,0x00,0x12,0xf0,0xff,0xff,0xff,
  0x11,0x00,0x00,0x00,0x02,0x00,0x00,0x00,0x00,0x00,0x00,0x11,
  0x0c,0x00,0x10,0x00,0x0f,0x00,0x00,0x00,0x08,0x00,0x04,0x00,
  0x0c,0x00,0x00,0x00,0x03,0x00,0x00,0x00,0x03,0x00,0x00,0x00,
  0x00,0x00,0x00,0x03,0x0c,0x00,0x0c,0x00,0x0b,0x00,0x00,0x00,
  0x00,0x00,0x04,0x00,0x0c,0x00,0x00,0x00,0x72,0x00,0x00,0x00,
  0x00,0x00,0x00,0x72,
};
const unsigned int best_model_h_len = 16048;
